// array size is 14464
static const byte calorie_nn_quant[] PROGMEM  = {
  0x1c, 0x00, 0x00, 0x00, 0x54, 0x46, 0x4c, 0x33, 0x14, 0x00, 0x20, 0x00, 0x1c, 0x00, 0x18, 0x00, 
  0x14, 0x00, 0x10, 0x00, 0x0c, 0x00, 0x00, 0x00, 0x08, 0x00, 0x04, 0x00, 0x14, 0x00, 0x00, 0x00, 
  0x1c, 0x00, 0x00, 0x00, 0x98, 0x00, 0x00, 0x00, 0xf0, 0x00, 0x00, 0x00, 0x14, 0x30, 0x00, 0x00, 
  0x24, 0x30, 0x00, 0x00, 0x28, 0x38, 0x00, 0x00, 0x03, 0x00, 0x00, 0x00, 0x01, 0x00, 0x00, 0x00, 
  0x10, 0x00, 0x00, 0x00, 0x00, 0x00, 0x0a, 0x00, 0x10, 0x00, 0x0c, 0x00, 0x08, 0x00, 0x04, 0x00, 
  0x0a, 0x00, 0x00, 0x00, 0x0c, 0x00, 0x00, 0x00, 0x1c, 0x00, 0x00, 0x00, 0x3c, 0x00, 0x00, 0x00, 
  0x0f, 0x00, 0x00, 0x00, 0x73, 0x65, 0x72, 0x76, 0x69, 0x6e, 0x67, 0x5f, 0x64, 0x65, 0x66, 0x61, 
  0x75, 0x6c, 0x74, 0x00, 0x01, 0x00, 0x00, 0x00, 0x04, 0x00, 0x00, 0x00, 0x90, 0xff, 0xff, 0xff, 
  0x09, 0x00, 0x00, 0x00, 0x04, 0x00, 0x00, 0x00, 0x08, 0x00, 0x00, 0x00, 0x6f, 0x75, 0x74, 0x70, 
  0x75, 0x74, 0x5f, 0x30, 0x00, 0x00, 0x00, 0x00, 0x01, 0x00, 0x00, 0x00, 0x04, 0x00, 0x00, 0x00, 
  0x7a, 0xda, 0xff, 0xff, 0x04, 0x00, 0x00, 0x00, 0x0d, 0x00, 0x00, 0x00, 0x69, 0x6e, 0x70, 0x75, 
  0x74, 0x5f, 0x6c, 0x61, 0x79, 0x65, 0x72, 0x5f, 0x33, 0x00, 0x00, 0x00, 0x02, 0x00, 0x00, 0x00, 
  0x34, 0x00, 0x00, 0x00, 0x04, 0x00, 0x00, 0x00, 0xdc, 0xff, 0xff, 0xff, 0x0c, 0x00, 0x00, 0x00, 
  0x04, 0x00, 0x00, 0x00, 0x13, 0x00, 0x00, 0x00, 0x43, 0x4f, 0x4e, 0x56, 0x45, 0x52, 0x53, 0x49, 
  0x4f, 0x4e, 0x5f, 0x4d, 0x45, 0x54, 0x41, 0x44, 0x41, 0x54, 0x41, 0x00, 0x08, 0x00, 0x0c, 0x00, 
  0x08, 0x00, 0x04, 0x00, 0x08, 0x00, 0x00, 0x00, 0x0b, 0x00, 0x00, 0x00, 0x04, 0x00, 0x00, 0x00, 
  0x13, 0x00, 0x00, 0x00, 0x6d, 0x69, 0x6e, 0x5f, 0x72, 0x75, 0x6e, 0x74, 0x69, 0x6d, 0x65, 0x5f, 
  0x76, 0x65, 0x72, 0x73, 0x69, 0x6f, 0x6e, 0x00, 0x0d, 0x00, 0x00, 0x00, 0x20, 0x2f, 0x00, 0x00, 
  0x18, 0x2f, 0x00, 0x00, 0x08, 0x25, 0x00, 0x00, 0xf0, 0x22, 0x00, 0x00, 0xe0, 0x21, 0x00, 0x00, 
  0xcc, 0x21, 0x00, 0x00, 0xbc, 0x20, 0x00, 0x00, 0xac, 0x00, 0x00, 0x00, 0xa4, 0x00, 0x00, 0x00, 
  0x9c, 0x00, 0x00, 0x00, 0x94, 0x00, 0x00, 0x00, 0x74, 0x00, 0x00, 0x00, 0x04, 0x00, 0x00, 0x00, 
  0x2a, 0xdb, 0xff, 0xff, 0x04, 0x00, 0x00, 0x00, 0x60, 0x00, 0x00, 0x00, 0x0c, 0x00, 0x00, 0x00, 
  0x08, 0x00, 0x0e, 0x00, 0x08, 0x00, 0x04, 0x00, 0x08, 0x00, 0x00, 0x00, 0x10, 0x00, 0x00, 0x00, 
  0x28, 0x00, 0x00, 0x00, 0x00, 0x00, 0x06, 0x00, 0x08, 0x00, 0x04, 0x00, 0x06, 0x00, 0x00, 0x00, 
  0x04, 0x00, 0x00, 0x00, 0x01, 0x00, 0x00, 0x00, 0xea, 0x03, 0x00, 0x00, 0x0c, 0x00, 0x18, 0x00, 
  0x14, 0x00, 0x10, 0x00, 0x0c, 0x00, 0x04, 0x00, 0x0c, 0x00, 0x00, 0x00, 0x94, 0x7a, 0xe0, 0x89, 
  0x3e, 0xfc, 0xea, 0xe3, 0x02, 0x00, 0x00, 0x00, 0x02, 0x00, 0x00, 0x00, 0x04, 0x00, 0x00, 0x00, 
  0x06, 0x00, 0x00, 0x00, 0x32, 0x2e, 0x31, 0x38, 0x2e, 0x30, 0x00, 0x00, 0x96, 0xdb, 0xff, 0xff, 
  0x04, 0x00, 0x00, 0x00, 0x10, 0x00, 0x00, 0x00, 0x32, 0x2e, 0x31, 0x37, 0x2e, 0x30, 0x00, 0x00, 
  0x00, 0x00, 0x00, 0x00, 0x00, 0x00, 0x00, 0x00, 0xb4, 0xc9, 0xff, 0xff, 0xb8, 0xc9, 0xff, 0xff, 
  0xbc, 0xc9, 0xff, 0xff, 0xbe, 0xdb, 0xff, 0xff, 0x04, 0x00, 0x00, 0x00, 0x00, 0x20, 0x00, 0x00, 
  0xd1, 0x9e, 0x6f, 0xb9, 0xc3, 0x22, 0x29, 0xc0, 0xef, 0x04, 0xe0, 0xc1, 0xf8, 0x28, 0x9e, 0xcd, 
  0x0c, 0x1b, 0x09, 0xf9, 0xec, 0xef, 0xf3, 0xd9, 0x37, 0xd9, 0x45, 0x54, 0x37, 0x0c, 0x41, 0xe1, 
  0xd5, 0xdb, 0xf4, 0x3f, 0x34, 0xc9, 0xd4, 0x31, 0x0c, 0x59, 0xed, 0xeb, 0xb5, 0x6a, 0xf3, 0x15, 
  0xd8, 0x21, 0xd5, 0x52, 0xb3, 0x1e, 0xca, 0xcd, 0xf8, 0x18, 0x0b, 0xbe, 0x38, 0x25, 0xf2, 0x97, 
  0xff, 0x1d, 0xcb, 0xfd, 0x06, 0x81, 0xe3, 0xd5, 0x0b, 0x19, 0xbf, 0xed, 0xd7, 0xee, 0xb5, 0xf3, 
  0x40, 0xcb, 0xeb, 0xce, 0x4c, 0x01, 0xfc, 0xbe, 0xe4, 0xae, 0xed, 0xbf, 0x06, 0xdf, 0x50, 0x2a, 
  0x36, 0x09, 0xaf, 0x29, 0xfd, 0xcf, 0x04, 0xa6, 0x47, 0x44, 0xe4, 0xd3, 0x38, 0xe5, 0xd6, 0xc5, 
  0x4a, 0xac, 0x3a, 0x3c, 0x21, 0x2f, 0x3d, 0xe5, 0xe8, 0xb6, 0x26, 0x17, 0xe7, 0xe8, 0xe2, 0x18, 
  0xf9, 0x00, 0x7f, 0xf1, 0xe9, 0xd4, 0x3c, 0xda, 0xf6, 0xe5, 0xe8, 0xad, 0xc2, 0xe0, 0xb4, 0x9f, 
  0xbe, 0xca, 0xe8, 0xb7, 0xd9, 0x01, 0x08, 0x1e, 0xe9, 0x93, 0x2f, 0xdc, 0x1d, 0xdb, 0x06, 0x01, 
  0xc4, 0x24, 0xf2, 0x1b, 0xee, 0xd4, 0x49, 0x19, 0x1c, 0x25, 0xff, 0x2d, 0x07, 0xd9, 0x13, 0x31, 
  0x10, 0x17, 0xfa, 0x30, 0xed, 0x1a, 0xec, 0x2a, 0xf5, 0xeb, 0xd2, 0xdb, 0x02, 0xec, 0x0a, 0xd4, 
  0x02, 0xf5, 0xc9, 0xab, 0x03, 0xe7, 0x22, 0xab, 0x0a, 0xf9, 0xd5, 0x6b, 0x21, 0x03, 0x24, 0x24, 
  0xf4, 0xd0, 0x2a, 0xf3, 0x0e, 0xf9, 0x05, 0xed, 0x16, 0x03, 0xee, 0xfc, 0xcf, 0xca, 0x3b, 0x1c, 
  0xe6, 0x00, 0xb9, 0xfc, 0xf5, 0x3d, 0xee, 0xf2, 0x01, 0x01, 0xf9, 0xb4, 0xe9, 0x41, 0xb7, 0x1c, 
  0xff, 0xf1, 0x4a, 0x2d, 0xe6, 0xb7, 0x09, 0x26, 0xfa, 0xf0, 0xcf, 0xef, 0x16, 0x1b, 0x1a, 0x13, 
  0xf2, 0x35, 0xdf, 0x11, 0x1e, 0x1a, 0xdf, 0x07, 0xab, 0xda, 0x40, 0x1d, 0x19, 0x02, 0xde, 0x15, 
  0x15, 0xd0, 0xf7, 0x28, 0xda, 0xe5, 0xf5, 0xa1, 0x32, 0xfd, 0x01, 0xc6, 0x39, 0xe6, 0xe4, 0xf6, 
  0xc6, 0x17, 0xee, 0xfc, 0x81, 0x12, 0xdf, 0xce, 0xc4, 0xc7, 0xc8, 0xaf, 0x0b, 0xd0, 0x02, 0xfa, 
  0xdd, 0xec, 0x14, 0x09, 0x09, 0xf9, 0xd7, 0x09, 0x19, 0x11, 0xf0, 0xf5, 0x37, 0x00, 0xdd, 0x31, 
  0x35, 0x25, 0xf3, 0xda, 0xcd, 0x26, 0x23, 0x14, 0x0f, 0xea, 0xfb, 0xcd, 0xcd, 0x01, 0xc0, 0x00, 
  0xb6, 0x20, 0x31, 0x0b, 0x07, 0xb6, 0xf8, 0x0a, 0xea, 0xd4, 0xc3, 0x35, 0xfc, 0xd8, 0xd2, 0xf1, 
  0xc9, 0x12, 0x49, 0xf9, 0x0a, 0xf6, 0x2e, 0x34, 0x13, 0x12, 0xf3, 0x29, 0x03, 0xbb, 0xd4, 0xcd, 
  0x07, 0xd1, 0x02, 0xf7, 0xef, 0xc5, 0x0b, 0x19, 0x2c, 0xf2, 0x14, 0xee, 0x14, 0x06, 0x03, 0x09, 
  0xed, 0x1a, 0x77, 0x6c, 0xed, 0xb7, 0xf8, 0xda, 0x0c, 0xd6, 0xd0, 0xd2, 0x3d, 0xc0, 0xdd, 0x1a, 
  0xac, 0x3b, 0xeb, 0xb4, 0xd4, 0x38, 0x3f, 0xc1, 0x24, 0xbf, 0x5b, 0xfc, 0xf3, 0xbe, 0x5c, 0x21, 
  0xa1, 0x36, 0x3f, 0x52, 0x1b, 0x10, 0xe6, 0xb5, 0x36, 0xe9, 0xec, 0x29, 0x48, 0x2d, 0xf1, 0x5e, 
  0xff, 0xd3, 0x67, 0xef, 0xe4, 0x0a, 0x12, 0x1a, 0x29, 0x4f, 0xa7, 0x02, 0x2f, 0x69, 0xbb, 0xcd, 
  0x1d, 0xd9, 0x3b, 0x36, 0x5a, 0x17, 0xb5, 0xb3, 0x3e, 0x21, 0xbb, 0x01, 0x30, 0xbe, 0x28, 0x5b, 
  0xb3, 0xd9, 0x7f, 0x79, 0x5a, 0x69, 0xc7, 0xf3, 0xf1, 0x2f, 0x07, 0x4c, 0x5a, 0xc4, 0x2f, 0x9b, 
  0xf0, 0xca, 0x90, 0x2d, 0xf0, 0xf0, 0xee, 0xd2, 0x71, 0x97, 0x36, 0xe2, 0x45, 0xc0, 0xc4, 0xd9, 
  0x05, 0xc9, 0x0c, 0xea, 0xed, 0x2d, 0xc9, 0x03, 0x14, 0x99, 0x3e, 0x0c, 0xfb, 0x76, 0x6a, 0x06, 
  0xa8, 0xff, 0x41, 0xfd, 0xb3, 0x1b, 0xf6, 0xf6, 0xb0, 0x2d, 0xc6, 0xa2, 0x1a, 0xb5, 0x0f, 0x18, 
  0xb0, 0xbc, 0xf6, 0xa0, 0xdd, 0x30, 0xeb, 0x8b, 0x8f, 0xd1, 0x5a, 0x07, 0x21, 0x29, 0x28, 0xce, 
  0x1a, 0x51, 0x98, 0x13, 0x96, 0x31, 0x88, 0x31, 0x25, 0xa2, 0x35, 0xa8, 0xdb, 0x9f, 0xc7, 0x3d, 
  0x44, 0xcf, 0xaf, 0x24, 0xf0, 0x17, 0x93, 0x2a, 0x4f, 0x5e, 0x33, 0x2d, 0x4a, 0x29, 0x41, 0x09, 
  0xc7, 0x1c, 0xc3, 0x95, 0x37, 0xea, 0x2d, 0xac, 0xd0, 0xcb, 0x4c, 0x70, 0xf1, 0x24, 0x81, 0x13, 
  0xd5, 0xfd, 0xf7, 0xab, 0x3a, 0xea, 0xb0, 0xbc, 0xf2, 0x8b, 0xb8, 0x46, 0xce, 0xff, 0xe3, 0xc3, 
  0x3b, 0x17, 0x45, 0x11, 0xb2, 0x9f, 0xc0, 0x4f, 0xe6, 0xc0, 0x5e, 0xf5, 0x2e, 0x15, 0xe0, 0x97, 
  0xe7, 0xbb, 0xd3, 0x3c, 0x19, 0x36, 0x02, 0x68, 0x3b, 0xbb, 0xcb, 0xbb, 0xf1, 0x23, 0xcb, 0x90, 
  0xf9, 0x1d, 0x34, 0xea, 0x56, 0x24, 0xc1, 0xc3, 0x21, 0x94, 0xef, 0xd0, 0xa7, 0xe5, 0x42, 0xa9, 
  0xbc, 0xd9, 0x3e, 0xe1, 0x0d, 0xda, 0x1c, 0x59, 0x17, 0x38, 0x40, 0x0c, 0x24, 0xbd, 0xd5, 0x11, 
  0x55, 0x96, 0xaa, 0x0c, 0x3c, 0xd4, 0x19, 0xf3, 0x2d, 0x12, 0xe5, 0xc7, 0x8d, 0x35, 0x17, 0x2b, 
  0xc3, 0xf2, 0x2a, 0xfa, 0xac, 0xf0, 0x16, 0x3c, 0x06, 0xcf, 0x9e, 0x87, 0xbd, 0xbd, 0x1b, 0xed, 
  0xce, 0x9b, 0xc5, 0xfd, 0x59, 0xf4, 0x98, 0x81, 0x2e, 0xa5, 0x4c, 0xff, 0xd2, 0xf9, 0xc3, 0xbc, 
  0xa5, 0xad, 0x3c, 0x40, 0xbb, 0x8b, 0x91, 0x92, 0x37, 0x9d, 0x1e, 0xfa, 0xbc, 0x90, 0x52, 0xa8, 
  0x96, 0x99, 0x27, 0xb6, 0xc1, 0x07, 0x9d, 0x0d, 0x9c, 0x2b, 0x46, 0xd4, 0xf5, 0xb9, 0xa0, 0x49, 
  0x1f, 0x59, 0x33, 0xbc, 0xc0, 0xa9, 0xac, 0x05, 0x35, 0x01, 0x00, 0x46, 0xaf, 0x3d, 0x22, 0xff, 
  0xf4, 0x33, 0xc1, 0xe7, 0x12, 0xb4, 0xfd, 0x2d, 0xf7, 0xcc, 0x48, 0xf5, 0xd2, 0x50, 0x23, 0x1e, 
  0xfb, 0xf8, 0x04, 0x17, 0xcb, 0x4b, 0x11, 0x50, 0xb9, 0x1b, 0x01, 0x17, 0x39, 0x2e, 0x38, 0xd8, 
  0x2b, 0x1b, 0xca, 0x38, 0xc2, 0xb6, 0xfc, 0xf0, 0xd7, 0x02, 0xe6, 0xdb, 0x11, 0x0a, 0xe7, 0xc5, 
  0xf3, 0xb0, 0x04, 0x50, 0xc2, 0xed, 0x36, 0xd8, 0x33, 0xec, 0xfa, 0xfd, 0x47, 0xbf, 0x59, 0x12, 
  0x5f, 0x27, 0x3c, 0x3f, 0x0b, 0xbb, 0x3a, 0x45, 0x81, 0xdb, 0xf4, 0xf2, 0x29, 0xd4, 0xe2, 0x02, 
  0x07, 0xfe, 0xfd, 0x3b, 0x4e, 0x2d, 0x29, 0x04, 0xdf, 0x45, 0xc8, 0x2a, 0x29, 0x07, 0xe8, 0x10, 
  0x39, 0x5d, 0x09, 0x1a, 0xcc, 0x53, 0xf5, 0xde, 0x29, 0xe6, 0xe3, 0x14, 0x63, 0xfb, 0xbf, 0xd0, 
  0x53, 0x0f, 0xcd, 0x2e, 0x64, 0xcf, 0x2f, 0x54, 0xcc, 0x0f, 0x58, 0xdc, 0xed, 0xd3, 0x21, 0x33, 
  0x09, 0x03, 0x7f, 0xfa, 0x28, 0xe3, 0xea, 0x41, 0xe1, 0x1c, 0xd6, 0xed, 0xfe, 0x0e, 0xb3, 0xf7, 
  0x25, 0xdc, 0x15, 0xc7, 0x15, 0xf4, 0xd1, 0x0c, 0x06, 0x05, 0xe9, 0x17, 0x1e, 0x22, 0xd1, 0xd3, 
  0xf9, 0x35, 0x25, 0x10, 0x01, 0x0a, 0xfa, 0xea, 0x0f, 0xf9, 0x23, 0xc7, 0xd0, 0xfc, 0xee, 0x1d, 
  0x0d, 0x39, 0xf3, 0x33, 0x14, 0xd7, 0x0f, 0xfc, 0xd9, 0x1f, 0x15, 0xfe, 0xfd, 0xd3, 0xf4, 0xd5, 
  0xbd, 0x20, 0x0f, 0xcc, 0xdb, 0xe1, 0x14, 0xe6, 0xee, 0xec, 0x0c, 0x2d, 0xd9, 0x38, 0x39, 0xf0, 
  0x20, 0x2c, 0x00, 0x35, 0xec, 0x0a, 0xe1, 0x0d, 0x11, 0x05, 0xe3, 0x0c, 0xd9, 0xb3, 0xe4, 0xf3, 
  0xf6, 0x10, 0xe8, 0x0b, 0x11, 0x13, 0xda, 0xf1, 0x2f, 0x01, 0xf2, 0xd0, 0x0c, 0x1f, 0xde, 0x15, 
  0x10, 0xe6, 0xf1, 0x2b, 0x11, 0x1f, 0xfc, 0xfa, 0x04, 0x02, 0x19, 0xf5, 0x16, 0x47, 0x33, 0xcd, 
  0xec, 0xd8, 0xf1, 0x15, 0xe3, 0xfe, 0x16, 0xf9, 0x08, 0x27, 0xfd, 0xe7, 0x9d, 0x05, 0xf7, 0xc8, 
  0xbd, 0xe3, 0xf7, 0xd9, 0x09, 0xe8, 0x36, 0xd1, 0xf6, 0xe2, 0xf6, 0xe8, 0xec, 0xf2, 0x26, 0x09, 
  0xf1, 0xfe, 0x1a, 0xbf, 0xce, 0xf4, 0x03, 0xdb, 0x94, 0xc1, 0x16, 0xe0, 0x13, 0xc3, 0xf8, 0x23, 
  0xe6, 0xef, 0x14, 0xed, 0x2b, 0x20, 0x11, 0xd8, 0xeb, 0x1f, 0x03, 0x00, 0x09, 0xf6, 0x22, 0xf1, 
  0xce, 0x43, 0x1d, 0x11, 0xfd, 0x15, 0xf4, 0xe7, 0x18, 0x0b, 0xe2, 0x18, 0x15, 0xd5, 0xeb, 0xf1, 
  0xf9, 0x0e, 0xb8, 0xf0, 0x1c, 0xc6, 0x20, 0x26, 0x1a, 0xe7, 0xe4, 0x81, 0xbd, 0xd6, 0xe5, 0xe5, 
  0xee, 0xee, 0xff, 0xec, 0x14, 0x21, 0x1c, 0x28, 0xdb, 0xfc, 0x2d, 0x25, 0x23, 0x1f, 0x04, 0x1f, 
  0xe1, 0x0b, 0x14, 0x13, 0xe1, 0xf6, 0x09, 0x26, 0x0c, 0x24, 0xec, 0x1f, 0xf1, 0xea, 0x20, 0x17, 
  0x1f, 0xae, 0x14, 0xe6, 0xcc, 0xce, 0x2a, 0x05, 0xf1, 0x15, 0xd8, 0x2a, 0xfa, 0x11, 0x0a, 0xfa, 
  0x17, 0xfe, 0x00, 0x0c, 0x8b, 0xca, 0xfd, 0x10, 0x0d, 0x20, 0xc4, 0xde, 0xfa, 0xdf, 0x01, 0xbe, 
  0x05, 0x00, 0x24, 0x0b, 0xd5, 0x23, 0xd4, 0xe1, 0xb9, 0xfa, 0xd3, 0xfa, 0xfa, 0xdb, 0xc9, 0x11, 
  0xfe, 0xc7, 0x0c, 0xf6, 0xf0, 0x8c, 0x0a, 0x2b, 0x08, 0xf4, 0xff, 0xca, 0x27, 0xc5, 0xfe, 0x24, 
  0xe2, 0x10, 0xe5, 0x19, 0xf0, 0x81, 0x0d, 0xfc, 0xf4, 0xc5, 0xd2, 0x22, 0xcd, 0xca, 0xe2, 0x1f, 
  0x32, 0xf8, 0xf0, 0x02, 0x0a, 0x36, 0x21, 0x1c, 0x06, 0xd4, 0x0e, 0xe8, 0x00, 0x03, 0x2c, 0x0d, 
  0x32, 0xdb, 0xd7, 0x1c, 0xdc, 0x24, 0xd9, 0x12, 0xe5, 0x0c, 0xd3, 0x1f, 0xff, 0xed, 0xef, 0xd2, 
  0xd8, 0xa1, 0x30, 0x2f, 0x27, 0xca, 0x1f, 0xbd, 0x10, 0x29, 0x23, 0xed, 0xb8, 0x17, 0xcc, 0xed, 
  0xb3, 0xcf, 0x0a, 0x41, 0x24, 0x3a, 0xe5, 0x13, 0x20, 0xfa, 0x17, 0x2c, 0x1a, 0x47, 0xa4, 0x14, 
  0x20, 0x2f, 0x18, 0x25, 0xa7, 0xab, 0xff, 0x5b, 0xbd, 0x40, 0x1e, 0x10, 0xe8, 0x3e, 0xe3, 0xc0, 
  0x24, 0x17, 0xbd, 0xa4, 0xe0, 0x47, 0xd7, 0xfa, 0xdf, 0x0d, 0x09, 0xf3, 0x1b, 0x05, 0x05, 0x07, 
  0x1e, 0xb0, 0xb2, 0x55, 0x2c, 0xb5, 0x36, 0xf0, 0x20, 0xea, 0x06, 0x4b, 0xeb, 0x27, 0xd3, 0xaa, 
  0xf5, 0x36, 0xd8, 0xea, 0x3c, 0x07, 0xa6, 0x1c, 0xe6, 0xf3, 0x0d, 0x15, 0xdc, 0x16, 0xf3, 0xf2, 
  0xaa, 0xfd, 0x81, 0xd2, 0xe1, 0x2b, 0xe8, 0x1a, 0xd8, 0xd2, 0x13, 0xd9, 0xd6, 0x09, 0x45, 0x14, 
  0xb3, 0x35, 0xdf, 0x01, 0xcd, 0xf8, 0x13, 0xc7, 0xbf, 0xe9, 0xc9, 0xd2, 0x42, 0x18, 0x1c, 0xbe, 
  0xeb, 0xea, 0x3e, 0xb9, 0x2a, 0xf2, 0xbc, 0xf7, 0x05, 0x39, 0x4f, 0x0a, 0xec, 0x45, 0x3f, 0xea, 
  0xfb, 0xca, 0xeb, 0xf7, 0x0c, 0xe1, 0x1f, 0x14, 0xe2, 0xc5, 0x14, 0xf1, 0x30, 0x19, 0x02, 0x0f, 
  0x30, 0x0d, 0xd8, 0x41, 0xfd, 0xd0, 0x16, 0xd8, 0x26, 0x27, 0x29, 0xe6, 0x3a, 0xf6, 0x26, 0xba, 
  0x2a, 0x37, 0x12, 0xf5, 0x04, 0x11, 0xf3, 0xcf, 0x02, 0xed, 0xfe, 0x37, 0x1c, 0xf2, 0xe8, 0xc0, 
  0xd0, 0xfa, 0xe8, 0xd2, 0xfe, 0xbb, 0x0e, 0xd9, 0xd1, 0x36, 0xac, 0x41, 0xe4, 0xb6, 0x05, 0xc3, 
  0x12, 0xde, 0xc1, 0x13, 0xb3, 0xfe, 0x01, 0x22, 0xc2, 0x81, 0x48, 0x08, 0xaf, 0x30, 0xc7, 0x22, 
  0x04, 0x3e, 0x27, 0xe3, 0xf5, 0x15, 0xe1, 0xd9, 0xd2, 0x45, 0xe2, 0xd7, 0xfc, 0xe8, 0x22, 0xda, 
  0x27, 0x40, 0x02, 0xd6, 0x32, 0x34, 0x16, 0xcb, 0x10, 0x20, 0x0f, 0x1c, 0x3d, 0xe8, 0xe7, 0xd5, 
  0xea, 0x13, 0x0c, 0xeb, 0x42, 0x27, 0xfd, 0x0d, 0x22, 0x27, 0xf7, 0x2a, 0x3a, 0x02, 0x25, 0xf4, 
  0xfd, 0xd9, 0x1a, 0xab, 0xaa, 0x52, 0x78, 0x6a, 0xcb, 0x31, 0x57, 0xe3, 0x7c, 0x8c, 0x24, 0xc2, 
  0x3f, 0xb9, 0x45, 0xd0, 0x3f, 0x0c, 0xe3, 0x94, 0xde, 0xd7, 0x36, 0x05, 0xc7, 0xee, 0x64, 0x1a, 
  0x15, 0xb0, 0x29, 0xad, 0x3e, 0x7a, 0x4b, 0xc8, 0xa6, 0x04, 0xc6, 0xa9, 0xbb, 0x4f, 0x2a, 0x14, 
  0x1b, 0xa1, 0xa7, 0xaf, 0xb6, 0xc0, 0x3c, 0x5b, 0xf9, 0xa9, 0x61, 0x06, 0xbb, 0x53, 0xaf, 0x34, 
  0x4a, 0x29, 0x15, 0xcf, 0x48, 0x27, 0x1f, 0xf1, 0x6c, 0x68, 0x5a, 0xba, 0xe4, 0xd5, 0xa6, 0x60, 
  0x56, 0x16, 0x6d, 0x01, 0xb8, 0x5c, 0x2f, 0xa8, 0xdf, 0x42, 0x54, 0x08, 0xf1, 0xbb, 0x23, 0x4c, 
  0x02, 0x00, 0x1a, 0xdb, 0x37, 0xeb, 0x22, 0x73, 0x1b, 0xd2, 0xb0, 0xac, 0xdc, 0x53, 0xa1, 0xf4, 
  0x39, 0xac, 0x4a, 0xb9, 0x03, 0x37, 0xc7, 0x7f, 0xd3, 0x0a, 0xd2, 0x44, 0xf6, 0x34, 0x65, 0xc9, 
  0xdc, 0xce, 0xe1, 0x7f, 0xf2, 0x03, 0x12, 0x07, 0xc5, 0x3b, 0xf1, 0xd5, 0xcf, 0xc9, 0x15, 0x0d, 
  0xe7, 0x0a, 0x36, 0xf6, 0xdf, 0x03, 0x4f, 0xed, 0x1d, 0x44, 0xd7, 0x0e, 0x11, 0x2d, 0xf5, 0x22, 
  0xff, 0xee, 0x4a, 0x24, 0xc7, 0x32, 0x4b, 0xb3, 0xf7, 0x18, 0x26, 0x1f, 0xfd, 0xfe, 0x1b, 0x02, 
  0x2c, 0x08, 0x0b, 0x0a, 0xc4, 0x4f, 0x19, 0x17, 0xe7, 0x3b, 0x35, 0xdd, 0x53, 0x12, 0x03, 0xf0, 
  0xc3, 0xbe, 0x14, 0xd1, 0x10, 0x31, 0x2f, 0xb6, 0x2c, 0xfd, 0x43, 0x33, 0x1b, 0xe9, 0x47, 0x3b, 
  0xd1, 0x75, 0x54, 0x13, 0x5c, 0xe7, 0xd7, 0x18, 0x29, 0xf9, 0x01, 0xd6, 0x2c, 0x17, 0xcc, 0x1b, 
  0xf0, 0x1d, 0xc4, 0xf0, 0x23, 0xc9, 0x36, 0xf9, 0x2a, 0x13, 0xcb, 0x29, 0x4c, 0x15, 0x21, 0x1f, 
  0xeb, 0x64, 0xda, 0x34, 0x0f, 0xb4, 0x27, 0x06, 0xf2, 0xed, 0xc7, 0x34, 0x1d, 0xde, 0x03, 0xfc, 
  0xb5, 0xd6, 0xe2, 0xdd, 0x22, 0x98, 0xf7, 0xab, 0xbc, 0x4e, 0xd4, 0x9d, 0x45, 0x3d, 0x88, 0xab, 
  0x53, 0x3e, 0x46, 0xdb, 0x0a, 0xa2, 0x93, 0xd2, 0xc0, 0xf1, 0xc9, 0x07, 0xc2, 0xb0, 0x97, 0x03, 
  0xb5, 0xd2, 0x3b, 0xa8, 0xbd, 0xce, 0x3a, 0xc9, 0xb3, 0xe6, 0x36, 0x99, 0x4c, 0x58, 0x43, 0x9b, 
  0x9d, 0xe5, 0x04, 0x88, 0x39, 0x88, 0x3f, 0x44, 0xf9, 0x3b, 0x26, 0x81, 0xec, 0xd7, 0x9e, 0xa8, 
  0x1a, 0xed, 0x15, 0xb4, 0xe1, 0xad, 0x6b, 0x69, 0xd2, 0x38, 0xa3, 0x0d, 0x5c, 0xc8, 0x4b, 0x59, 
  0x4c, 0x18, 0x94, 0xfb, 0x29, 0x39, 0x49, 0x9f, 0xc0, 0xd1, 0xc3, 0x1c, 0xf5, 0xab, 0xef, 0xa7, 
  0x92, 0x4c, 0x15, 0x0f, 0x30, 0xba, 0xa8, 0x32, 0x49, 0xee, 0xc3, 0xb1, 0xa4, 0xf1, 0xe9, 0x8c, 
  0xdd, 0x05, 0xe3, 0x20, 0x48, 0xdf, 0x08, 0x58, 0xae, 0x5b, 0x54, 0xae, 0xa5, 0x11, 0x4f, 0xd7, 
  0x18, 0x21, 0xe6, 0xe7, 0xda, 0xfb, 0xc0, 0x04, 0xc6, 0x2e, 0x10, 0xe7, 0xfd, 0x1c, 0x38, 0xee, 
  0xe6, 0xdb, 0x17, 0x2a, 0x31, 0xe6, 0x04, 0x0b, 0x2a, 0x2b, 0xfc, 0x15, 0xdb, 0xdf, 0xe0, 0x29, 
  0xc8, 0x1c, 0x3a, 0xf6, 0xea, 0xe2, 0x17, 0xcf, 0x81, 0x1e, 0x35, 0xdc, 0xf9, 0x27, 0x1d, 0xc5, 
  0xeb, 0x2f, 0xd6, 0x27, 0x3f, 0x0e, 0xd8, 0x07, 0xea, 0xd9, 0xfc, 0x45, 0xe0, 0xd4, 0xff, 0xbe, 
  0xc4, 0xbe, 0x1b, 0xd7, 0xe7, 0xd7, 0x21, 0xee, 0xdc, 0x32, 0xf7, 0xcc, 0xab, 0xf7, 0xe8, 0xce, 
  0x25, 0xd2, 0xf7, 0x41, 0x0f, 0x3e, 0x1d, 0x03, 0x37, 0xed, 0xf9, 0xdb, 0xd4, 0x34, 0x2a, 0x0f, 
  0xfb, 0x36, 0x0b, 0x1e, 0x28, 0xdf, 0xe7, 0xde, 0x25, 0xa0, 0xaf, 0xdd, 0x29, 0xfe, 0xe6, 0xd3, 
  0xd9, 0x5c, 0x17, 0x1a, 0x22, 0xe3, 0x08, 0xeb, 0x22, 0x0c, 0xea, 0x35, 0x23, 0xe7, 0x03, 0x11, 
  0x27, 0x30, 0xee, 0xe1, 0xf6, 0xda, 0xff, 0x17, 0x03, 0xd3, 0xe1, 0x41, 0x3c, 0xfe, 0x30, 0x32, 
  0xfe, 0x0c, 0x06, 0xe6, 0x01, 0xd7, 0x3a, 0xd6, 0x06, 0xce, 0xfb, 0x20, 0x17, 0x2c, 0xd1, 0x2e, 
  0xf3, 0x30, 0xf9, 0xf7, 0x2b, 0xec, 0xe7, 0x23, 0xc0, 0xc9, 0x39, 0xc4, 0x10, 0xf4, 0x0e, 0x3d, 
  0x23, 0x2c, 0x41, 0xdd, 0x33, 0x08, 0x13, 0xc8, 0x34, 0xe4, 0x30, 0x23, 0xee, 0x03, 0xe1, 0x0e, 
  0xe1, 0xdb, 0x0b, 0xfe, 0xd7, 0xed, 0x4a, 0xe5, 0xfb, 0x0c, 0xfe, 0x15, 0xfe, 0xef, 0xea, 0xfd, 
  0x0d, 0xf7, 0x18, 0xe2, 0xc7, 0x47, 0x2e, 0xee, 0x2b, 0xdd, 0x15, 0x1b, 0x2a, 0xec, 0x40, 0xc5, 
  0x33, 0xf6, 0xe3, 0xdc, 0x0f, 0x0e, 0x0e, 0x0d, 0x1c, 0x28, 0x1a, 0xe7, 0x04, 0xd1, 0x2f, 0xf1, 
  0x31, 0x81, 0xf6, 0x04, 0x15, 0xec, 0x31, 0xfa, 0xfd, 0xdb, 0x1f, 0x10, 0x0d, 0x2c, 0x1d, 0x0b, 
  0x83, 0x94, 0x96, 0x08, 0x4b, 0xf8, 0xbd, 0xb1, 0xf3, 0xde, 0x61, 0x97, 0xf8, 0x5c, 0xda, 0x23, 
  0x55, 0xf4, 0xfb, 0xb8, 0x25, 0x68, 0x10, 0x2b, 0xc9, 0x02, 0xfe, 0x11, 0xd3, 0xce, 0x0f, 0x9b, 
  0xf5, 0xa9, 0x24, 0x2b, 0x19, 0xf4, 0xe9, 0x89, 0xf3, 0xed, 0x90, 0xe2, 0x24, 0x22, 0xc8, 0xc4, 
  0xc6, 0xe4, 0x4e, 0xee, 0x9a, 0x0c, 0x81, 0xdd, 0xd5, 0xe9, 0xb5, 0x8e, 0xfb, 0xab, 0xad, 0x3e, 
  0x3c, 0xa6, 0x64, 0x45, 0xb8, 0x5f, 0xb6, 0x4f, 0xa5, 0xcd, 0x0f, 0x2c, 0x6b, 0x9e, 0xe6, 0xbb, 
  0x95, 0x8f, 0xb3, 0xbd, 0x1d, 0xd2, 0xc0, 0xa8, 0x1a, 0x1e, 0x63, 0x2c, 0x36, 0x9f, 0xeb, 0xf1, 
  0xac, 0x0c, 0xf7, 0x0f, 0xa6, 0x3e, 0x3c, 0xe4, 0x46, 0xc7, 0x09, 0xde, 0x24, 0xdb, 0x92, 0x12, 
  0x20, 0x89, 0x3b, 0x33, 0xc6, 0xae, 0x8e, 0x51, 0xde, 0x16, 0x9b, 0x4f, 0x5e, 0x84, 0xb0, 0xdc, 
  0x4e, 0x24, 0xa6, 0x29, 0xe5, 0x01, 0x39, 0x21, 0xe1, 0xd2, 0x0f, 0x31, 0x4c, 0xd5, 0x0f, 0x47, 
  0x24, 0x20, 0xea, 0x1d, 0xd8, 0x42, 0x3b, 0x28, 0xd7, 0xc5, 0x36, 0x0e, 0x24, 0x4a, 0x27, 0x1a, 
  0xeb, 0xd6, 0xc1, 0xcf, 0x07, 0xcb, 0xc3, 0x3d, 0x35, 0xf9, 0xf4, 0x3b, 0x1e, 0x43, 0xfe, 0x13, 
  0xca, 0xde, 0x2c, 0x22, 0x05, 0xda, 0x21, 0x21, 0xc0, 0x07, 0xe3, 0x29, 0xe5, 0x41, 0x2b, 0x11, 
  0x3c, 0x21, 0xdc, 0x33, 0xf4, 0x4c, 0x15, 0xb4, 0xb4, 0xbc, 0x00, 0x55, 0x22, 0x39, 0x09, 0xe2, 
  0xc0, 0xdc, 0x04, 0xe1, 0x35, 0xf0, 0x0e, 0x65, 0x42, 0x18, 0x6a, 0xd1, 0x34, 0x2d, 0xf6, 0x40, 
  0x2e, 0x38, 0xd1, 0x29, 0xb1, 0xd4, 0x0f, 0x81, 0x40, 0x21, 0x2c, 0x0f, 0x23, 0x09, 0xcf, 0xa4, 
  0x03, 0x2a, 0xbf, 0x24, 0x56, 0x07, 0x1a, 0x2c, 0xdf, 0x6f, 0x4e, 0xe5, 0x1e, 0xb1, 0xd9, 0x11, 
  0x2e, 0x3e, 0xd3, 0xdd, 0x21, 0x2c, 0xe6, 0x16, 0x30, 0x3c, 0x45, 0x24, 0xe0, 0x34, 0x23, 0x39, 
  0x2d, 0xfe, 0xdc, 0x2b, 0x32, 0xf6, 0x12, 0x41, 0x03, 0x2e, 0x02, 0x37, 0xd8, 0xd9, 0x4b, 0xe1, 
  0x2e, 0xe5, 0x11, 0xfa, 0x44, 0x31, 0x03, 0x28, 0x06, 0x18, 0x0a, 0xd4, 0x1d, 0xd0, 0x0d, 0x02, 
  0xdf, 0x15, 0x28, 0xfb, 0x38, 0xdb, 0x24, 0x23, 0x16, 0x03, 0x1e, 0xea, 0xc2, 0x2d, 0x1f, 0xf0, 
  0xf5, 0xea, 0xd3, 0xd2, 0x24, 0xe9, 0xda, 0xdd, 0x17, 0xfa, 0x35, 0xbc, 0xee, 0xdd, 0x20, 0xdf, 
  0x45, 0x3b, 0x81, 0x30, 0xfa, 0x3a, 0x3c, 0x0b, 0x3c, 0x1c, 0x36, 0xe2, 0x1c, 0x4d, 0xd8, 0x3c, 
  0x25, 0xc4, 0x0e, 0xf3, 0xdb, 0x1e, 0xd0, 0xfe, 0xd6, 0x51, 0x06, 0x01, 0x33, 0x0f, 0x20, 0x38, 
  0xcd, 0x1d, 0xe1, 0x05, 0x24, 0xe5, 0xf0, 0xfe, 0x09, 0x40, 0xd2, 0xf5, 0x4d, 0xee, 0x08, 0x19, 
  0x09, 0xb9, 0x3e, 0x1d, 0x08, 0x03, 0xf8, 0xcf, 0xcd, 0xc8, 0x01, 0xff, 0xcd, 0x07, 0xbf, 0xde, 
  0xc1, 0x04, 0xc1, 0xf9, 0xa6, 0xec, 0xf7, 0x1c, 0x03, 0xe1, 0x31, 0x2b, 0x20, 0xc6, 0x0b, 0xf1, 
  0x05, 0x21, 0xbe, 0x8b, 0xd0, 0xe3, 0xe7, 0xce, 0xfa, 0xf5, 0xec, 0xf8, 0x81, 0x13, 0xdc, 0x26, 
  0x11, 0xd2, 0xc4, 0xce, 0xf4, 0xed, 0xfa, 0x41, 0xe9, 0x3f, 0x4a, 0xf1, 0x1d, 0xd3, 0xc4, 0x2f, 
  0x0b, 0x03, 0x12, 0x23, 0x4b, 0x29, 0xdd, 0x07, 0x19, 0xf4, 0x25, 0xf2, 0x14, 0x18, 0xa7, 0x02, 
  0xe7, 0xf8, 0x96, 0xcb, 0xd4, 0xdc, 0x3a, 0x15, 0x3b, 0x27, 0xf0, 0x0d, 0x3d, 0x27, 0xff, 0xbe, 
  0xc3, 0xf8, 0xec, 0x99, 0x1c, 0xa8, 0x4a, 0x0b, 0x1f, 0xdf, 0xcc, 0xc3, 0xe8, 0xde, 0x04, 0xb9, 
  0x41, 0x22, 0x21, 0xb6, 0x2b, 0x44, 0x31, 0xe5, 0x2a, 0xeb, 0xae, 0x10, 0x03, 0x19, 0x2f, 0x21, 
  0xad, 0xbd, 0xea, 0x03, 0xe9, 0x1e, 0xb0, 0xac, 0xd5, 0x40, 0xc1, 0x1e, 0xf7, 0xd8, 0x1a, 0x35, 
  0xfc, 0xf0, 0xfa, 0x2d, 0x81, 0xa4, 0xfd, 0xb4, 0x13, 0x3a, 0xb7, 0xf8, 0xe3, 0x16, 0xc3, 0xec, 
  0x29, 0x44, 0xdb, 0xd2, 0x3c, 0x60, 0xc7, 0xbc, 0xc1, 0xc1, 0xf2, 0xda, 0x32, 0x4e, 0x45, 0x38, 
  0x34, 0xd5, 0xc6, 0x1d, 0x3a, 0x90, 0xb5, 0x4e, 0xf7, 0xee, 0x2f, 0x27, 0xb9, 0xcc, 0x64, 0xfa, 
  0x39, 0x06, 0xe6, 0xdb, 0x0a, 0xab, 0x91, 0xb3, 0xd0, 0xd0, 0x40, 0x27, 0xde, 0x1e, 0x31, 0xe8, 
  0x4f, 0xd9, 0xbf, 0x15, 0xd7, 0x13, 0xc4, 0x0a, 0x06, 0xf9, 0x12, 0x02, 0x37, 0xca, 0x4d, 0xe3, 
  0x31, 0xce, 0xad, 0xfd, 0xad, 0x21, 0xf5, 0x31, 0xc2, 0x35, 0x27, 0x31, 0x2b, 0x39, 0x06, 0x0b, 
  0xe3, 0xc6, 0x39, 0x35, 0x55, 0x1c, 0x49, 0xfd, 0x08, 0xff, 0x0f, 0xbc, 0xde, 0x06, 0xcd, 0xf3, 
  0x15, 0x26, 0xd2, 0xc2, 0xdc, 0x11, 0xef, 0xfc, 0x21, 0x4c, 0x47, 0xf0, 0x34, 0xd9, 0x32, 0x21, 
  0xe2, 0x16, 0x20, 0xef, 0x3a, 0x44, 0x06, 0xd8, 0xf8, 0x0a, 0xf3, 0xe6, 0x32, 0xfe, 0xd8, 0x16, 
  0x30, 0x27, 0x16, 0xdb, 0x40, 0xdf, 0xf7, 0xe2, 0xee, 0x02, 0xf8, 0xe5, 0xca, 0xe3, 0xd2, 0x09, 
  0xd4, 0xe3, 0xe3, 0xdb, 0x33, 0x10, 0x3a, 0x06, 0x15, 0x3e, 0xfa, 0xf4, 0x29, 0xde, 0xd1, 0x25, 
  0x42, 0xe8, 0x37, 0xb0, 0x38, 0xf8, 0x14, 0x22, 0x46, 0x1b, 0x2c, 0x04, 0x36, 0xee, 0xf1, 0xda, 
  0xf8, 0xf9, 0x7f, 0x3a, 0xf8, 0x02, 0x10, 0x0a, 0x36, 0xe2, 0xfa, 0xed, 0xe1, 0x2d, 0x1a, 0xa9, 
  0xd2, 0x0f, 0x45, 0x2e, 0xd9, 0x31, 0x4c, 0xd9, 0xed, 0x16, 0xf9, 0xfd, 0xde, 0x00, 0xdf, 0x46, 
  0x1c, 0x1b, 0xe2, 0x1a, 0xf4, 0x06, 0xe6, 0x0d, 0x02, 0xbe, 0xce, 0x38, 0xdd, 0x06, 0x3b, 0x17, 
  0xe5, 0x03, 0xa2, 0x8e, 0xf5, 0xb1, 0x35, 0x55, 0xfc, 0xb5, 0x3d, 0x21, 0x6a, 0x2e, 0x14, 0xa2, 
  0x51, 0xcd, 0x73, 0xab, 0x59, 0xd8, 0xa2, 0x33, 0x66, 0x24, 0xa1, 0x35, 0xf5, 0x4f, 0x2b, 0x3b, 
  0xec, 0xbe, 0xaf, 0x3f, 0xfb, 0x07, 0x2d, 0x2e, 0x1c, 0xf7, 0xda, 0xe3, 0xa8, 0xe7, 0xd4, 0x30, 
  0xc9, 0x25, 0xd1, 0xf2, 0x68, 0x51, 0x59, 0x50, 0x40, 0x1b, 0xf6, 0xc3, 0x30, 0x63, 0xb9, 0xdc, 
  0x97, 0xb8, 0x46, 0x35, 0xfb, 0x02, 0xde, 0xa3, 0xf6, 0x9f, 0xa9, 0x18, 0xfd, 0x22, 0x32, 0xaf, 
  0xbd, 0x54, 0x83, 0xc1, 0x48, 0xe5, 0xa0, 0xa7, 0xf8, 0xba, 0x01, 0x21, 0x36, 0x49, 0xed, 0x15, 
  0xf6, 0xc6, 0x83, 0xaf, 0xf8, 0x0f, 0xdc, 0xf4, 0xc4, 0x36, 0xdf, 0x53, 0x24, 0x29, 0x04, 0x02, 
  0x39, 0x26, 0xc6, 0x0b, 0x1e, 0xf5, 0x2b, 0xf5, 0x3d, 0xa1, 0xfb, 0xa3, 0x81, 0xfb, 0xd5, 0xad, 
  0xfd, 0xf9, 0x17, 0xde, 0x2c, 0xe3, 0xda, 0xec, 0x27, 0x2d, 0x20, 0x29, 0x0f, 0xe8, 0x1d, 0x27, 
  0x01, 0xd8, 0xf0, 0xf4, 0xf8, 0x2c, 0x30, 0xe4, 0x19, 0xd0, 0xf4, 0xe1, 0xfa, 0xe3, 0xfc, 0x15, 
  0xf2, 0x0c, 0xe3, 0xf6, 0x28, 0xe1, 0x11, 0x1d, 0x00, 0x02, 0x21, 0xd9, 0x09, 0x15, 0xe6, 0xe4, 
  0x21, 0xf8, 0xef, 0x1d, 0x10, 0x1b, 0xfb, 0xf9, 0xff, 0xe0, 0xed, 0x25, 0x00, 0xf6, 0xe2, 0x0d, 
  0x2c, 0xf4, 0x0c, 0xed, 0xfe, 0x0c, 0xf2, 0x09, 0x03, 0x0f, 0xf9, 0x04, 0x12, 0xf6, 0xea, 0x04, 
  0x00, 0x06, 0x12, 0xdf, 0xec, 0x0b, 0xf3, 0xf0, 0xfd, 0xda, 0x1f, 0x34, 0x08, 0x05, 0x22, 0xf1, 
  0x14, 0xda, 0x1b, 0x10, 0x0a, 0x19, 0x2f, 0xea, 0xfb, 0x0d, 0x27, 0x29, 0xdd, 0xdd, 0xfd, 0x0d, 
  0xee, 0x81, 0x05, 0x24, 0x32, 0x09, 0x01, 0xdd, 0xe5, 0xe2, 0x12, 0x1b, 0x22, 0xfb, 0xf2, 0xf2, 
  0x12, 0xcf, 0xa4, 0xc2, 0x11, 0x43, 0x2e, 0xff, 0x2f, 0xdc, 0xe8, 0x09, 0xea, 0x5d, 0xcb, 0x3a, 
  0xa9, 0x51, 0xd9, 0xe8, 0xf4, 0xbe, 0x00, 0x72, 0x08, 0xef, 0xf4, 0xf7, 0xe8, 0xcc, 0x74, 0x01, 
  0x0b, 0x2a, 0xc8, 0x99, 0x33, 0x53, 0xfd, 0xff, 0x23, 0x4e, 0x7f, 0x3e, 0x93, 0xda, 0x5f, 0xe3, 
  0xfa, 0x2e, 0xd2, 0x70, 0x45, 0xf5, 0x2f, 0x3a, 0xcd, 0x09, 0x36, 0x67, 0x56, 0xa5, 0xd0, 0x50, 
  0x1d, 0x07, 0x4c, 0xce, 0x68, 0x24, 0x48, 0x19, 0x07, 0x1c, 0xef, 0xf2, 0x38, 0x2b, 0x67, 0xf7, 
  0xb2, 0xdb, 0xc0, 0x01, 0x01, 0xb1, 0x5a, 0x56, 0x1a, 0x78, 0x24, 0xe0, 0xa7, 0xeb, 0xf4, 0x79, 
  0x32, 0x0a, 0xb4, 0xfc, 0x16, 0x12, 0x02, 0x6b, 0xc9, 0xe5, 0xf5, 0x42, 0xe1, 0x16, 0xab, 0x00, 
  0x5b, 0x37, 0xa0, 0x11, 0x3d, 0xda, 0xd8, 0x0d, 0x6c, 0x55, 0x3c, 0x4e, 0x5c, 0xd8, 0xba, 0x5e, 
  0xee, 0x44, 0xf9, 0x05, 0xdb, 0x0f, 0xfe, 0x35, 0x3a, 0xee, 0xca, 0x07, 0x3e, 0x4d, 0xd7, 0x27, 
  0x47, 0xce, 0xd9, 0x07, 0x2c, 0x46, 0x2d, 0x06, 0x43, 0x30, 0xcb, 0x08, 0xe7, 0x47, 0xf9, 0xa8, 
  0x43, 0x0d, 0x27, 0x00, 0xe2, 0x07, 0xdd, 0xf8, 0xe5, 0xdf, 0x28, 0x46, 0xea, 0xf2, 0x26, 0x2a, 
  0xce, 0x06, 0xe3, 0x00, 0xcd, 0xfc, 0xe2, 0x18, 0xb7, 0xf4, 0xd5, 0x38, 0xcd, 0x2a, 0x1e, 0x2d, 
  0xf1, 0x13, 0x0c, 0xf9, 0xfa, 0xfe, 0xd1, 0x17, 0xb4, 0xcb, 0x3e, 0xe3, 0x17, 0x27, 0xf5, 0xfb, 
  0x20, 0x5c, 0x97, 0xdd, 0xb4, 0x28, 0x20, 0xf6, 0xe5, 0x34, 0xcc, 0x1b, 0x16, 0x04, 0xec, 0x0a, 
  0xf0, 0x98, 0xca, 0xf8, 0xbb, 0xdd, 0x40, 0x15, 0xbc, 0xe3, 0xfe, 0xd4, 0x00, 0xfa, 0x00, 0x3a, 
  0xef, 0xdb, 0x3a, 0x0c, 0x2f, 0x2d, 0xd0, 0x1a, 0xe8, 0xf0, 0xfc, 0xc4, 0x81, 0x3a, 0xc4, 0x26, 
  0x16, 0xde, 0x37, 0xd0, 0xf6, 0x19, 0xfd, 0x10, 0xe6, 0xef, 0x11, 0x14, 0x04, 0xe8, 0xe7, 0xf4, 
  0xf8, 0x37, 0x16, 0xf5, 0xca, 0xe1, 0xf8, 0xd5, 0xd2, 0x1d, 0xe7, 0xe0, 0xdc, 0xf9, 0xf3, 0xe7, 
  0x2a, 0x09, 0xca, 0xda, 0xfb, 0x33, 0xfb, 0xcc, 0x06, 0x17, 0xd2, 0xe3, 0x17, 0xda, 0xc7, 0x27, 
  0x13, 0xf2, 0x2d, 0x33, 0x24, 0x00, 0x23, 0xec, 0x00, 0x2d, 0x12, 0xf3, 0xc3, 0x13, 0x14, 0x01, 
  0xd2, 0x01, 0x14, 0xdb, 0x14, 0x19, 0xe3, 0x1a, 0x02, 0xe9, 0xd5, 0x04, 0x27, 0xeb, 0xe9, 0xf2, 
  0x1a, 0x36, 0x81, 0xee, 0xe6, 0xe8, 0x26, 0xfc, 0x06, 0x01, 0x0d, 0x26, 0x0e, 0x2f, 0x09, 0xef, 
  0xda, 0xc2, 0xf5, 0x12, 0xde, 0x3a, 0x1a, 0xf7, 0xc9, 0xec, 0x24, 0xe1, 0x00, 0x0a, 0xe8, 0x1f, 
  0xfc, 0xc1, 0xdd, 0xde, 0x22, 0x19, 0xfd, 0xd2, 0xf2, 0xf1, 0x0e, 0x0c, 0xdd, 0x1c, 0x1b, 0x1a, 
  0xc4, 0x0f, 0x24, 0xbf, 0x17, 0xf0, 0x8e, 0xb3, 0x01, 0xbc, 0xc1, 0x8d, 0x28, 0xce, 0x81, 0xd9, 
  0xf0, 0x58, 0x83, 0x07, 0xd0, 0x12, 0x55, 0x53, 0xbb, 0x04, 0x42, 0xcb, 0x13, 0xcf, 0xd0, 0xab, 
  0xee, 0x9d, 0x74, 0x62, 0xf4, 0x34, 0xd6, 0x1c, 0x69, 0xbf, 0x05, 0xdf, 0x22, 0x5e, 0x52, 0x2e, 
  0x5a, 0x1d, 0x74, 0xc0, 0x3f, 0x8e, 0x3b, 0xcf, 0x00, 0xbf, 0xf7, 0xc2, 0x9b, 0x9b, 0xc6, 0xdf, 
  0x53, 0x56, 0x00, 0xe3, 0xab, 0xa3, 0x7f, 0xc5, 0x28, 0x0f, 0x0a, 0x9e, 0x09, 0xe6, 0x2d, 0x2f, 
  0x37, 0x69, 0x0c, 0xbf, 0x22, 0xeb, 0x46, 0x0d, 0x08, 0xc2, 0xaa, 0x2b, 0x48, 0xdf, 0x0d, 0xd8, 
  0xea, 0x1a, 0xce, 0xf8, 0x1f, 0x18, 0xc7, 0xec, 0xa9, 0x46, 0x38, 0x15, 0x64, 0x1b, 0x0d, 0xc9, 
  0x36, 0xe4, 0x48, 0xf0, 0x24, 0x2c, 0xdb, 0x49, 0x0e, 0x4c, 0x17, 0x2a, 0x06, 0x1d, 0xce, 0xbf, 
  0xf1, 0xeb, 0xba, 0x5a, 0xc0, 0x0b, 0xd1, 0x3e, 0x2a, 0x6b, 0x42, 0x20, 0x5e, 0x39, 0xe1, 0x18, 
  0xd5, 0x42, 0x71, 0x0a, 0x03, 0x2f, 0x4f, 0x5a, 0x58, 0xdd, 0x02, 0xeb, 0xec, 0x56, 0xab, 0xfe, 
  0xd7, 0x2b, 0xc5, 0x53, 0x0d, 0xeb, 0x05, 0x1d, 0xce, 0xe8, 0xc4, 0x51, 0xe9, 0x37, 0xba, 0xb8, 
  0x26, 0x9e, 0x49, 0xbf, 0xe1, 0xff, 0xcd, 0xe3, 0x2f, 0x1e, 0xc1, 0x88, 0x8e, 0xde, 0xd4, 0xa8, 
  0x14, 0x12, 0x47, 0x20, 0x14, 0x0d, 0xe7, 0x3f, 0xc2, 0xd7, 0x41, 0xfc, 0x17, 0x09, 0xc1, 0x04, 
  0x40, 0xe9, 0x75, 0xda, 0x3a, 0xf5, 0x7a, 0x7f, 0xe9, 0x4b, 0xdc, 0xf9, 0x70, 0x55, 0x10, 0x59, 
  0x3f, 0x4b, 0x2a, 0xed, 0x01, 0xbd, 0xfc, 0x92, 0x1a, 0xb5, 0x2a, 0x08, 0x44, 0x57, 0x25, 0xe9, 
  0xe3, 0x57, 0xc7, 0xb3, 0xdc, 0xf4, 0x43, 0xe5, 0xbe, 0x19, 0x62, 0xa8, 0xde, 0x22, 0xb3, 0x2e, 
  0x32, 0xdb, 0x5f, 0x5a, 0x00, 0x14, 0x6b, 0xcd, 0xed, 0x14, 0x2c, 0x39, 0x73, 0x50, 0x2f, 0x2c, 
  0xff, 0x23, 0xdb, 0xd1, 0xdb, 0x40, 0xcc, 0x2f, 0x00, 0x61, 0xb4, 0xc6, 0x0d, 0xa5, 0xb4, 0xda, 
  0xe1, 0xcf, 0x25, 0x16, 0x3d, 0xfb, 0x2b, 0xeb, 0xc7, 0x1d, 0x1b, 0x18, 0xc3, 0x61, 0x31, 0xaa, 
  0x17, 0x41, 0xf0, 0x48, 0x30, 0xab, 0xed, 0x6d, 0xb1, 0x26, 0xf2, 0xd9, 0xfd, 0xad, 0x47, 0xc1, 
  0xc5, 0x6b, 0x12, 0x60, 0x15, 0x0f, 0xee, 0x27, 0xcf, 0x54, 0x65, 0x3e, 0x09, 0xe0, 0xf6, 0x59, 
  0x01, 0xd4, 0x81, 0x3d, 0xc8, 0x1c, 0x74, 0xc0, 0xd5, 0x49, 0xd5, 0x62, 0x28, 0x0f, 0xc1, 0x38, 
  0xa9, 0xec, 0xc6, 0x09, 0xd4, 0x21, 0xc9, 0x38, 0xf7, 0x17, 0xd3, 0xe5, 0x4c, 0xc7, 0x68, 0x19, 
  0xd3, 0x1f, 0xc0, 0x3c, 0x25, 0x7a, 0x59, 0xef, 0xfb, 0xe3, 0xbc, 0x08, 0x5a, 0x34, 0x19, 0xc1, 
  0xb6, 0x2e, 0x48, 0xbd, 0xe7, 0x40, 0xb8, 0x2d, 0xac, 0x0d, 0xf7, 0x5a, 0xb2, 0x24, 0xc0, 0x56, 
  0x46, 0x2b, 0x33, 0x08, 0x03, 0xbc, 0x51, 0x09, 0xa6, 0xd3, 0x26, 0x0c, 0x6b, 0x3a, 0x5d, 0x10, 
  0x21, 0xc1, 0x23, 0xd7, 0xfa, 0x4b, 0xf2, 0xe4, 0x2b, 0xc9, 0x0f, 0x2a, 0x60, 0xbb, 0xe7, 0xd0, 
  0xdd, 0x23, 0xdd, 0x66, 0x45, 0xfc, 0x02, 0xbc, 0xfc, 0xe0, 0xea, 0x3b, 0xb1, 0x5d, 0xa7, 0xf8, 
  0xba, 0x6e, 0x13, 0xed, 0x2c, 0x07, 0x7f, 0xb9, 0x60, 0xb7, 0xc0, 0x52, 0x9d, 0x1c, 0xe9, 0xa8, 
  0x4e, 0xe8, 0x20, 0x1f, 0x63, 0x57, 0xa3, 0x1a, 0xe5, 0xdc, 0x21, 0x08, 0xc6, 0x3c, 0x16, 0x28, 
  0xb5, 0xbe, 0x0b, 0xed, 0x61, 0x13, 0xb3, 0x44, 0x56, 0xca, 0x17, 0x7e, 0x44, 0xa3, 0xc7, 0x23, 
  0xf9, 0x11, 0x6d, 0xbe, 0xcf, 0xd4, 0xd4, 0x5b, 0xbf, 0xe4, 0xc0, 0x64, 0xd8, 0x61, 0xd1, 0xa0, 
  0xce, 0xea, 0x09, 0x8c, 0x13, 0x49, 0x49, 0xeb, 0x2f, 0x74, 0xf9, 0x33, 0x43, 0xc5, 0x2d, 0xf3, 
  0xad, 0x42, 0xe4, 0x4d, 0x1e, 0x4e, 0xbf, 0xeb, 0xfe, 0x17, 0x65, 0xd2, 0x22, 0x2d, 0x07, 0xf3, 
  0x53, 0x34, 0x1e, 0x51, 0x3f, 0x21, 0x22, 0x36, 0xae, 0xed, 0x49, 0xfd, 0x5e, 0x10, 0xf7, 0x29, 
  0x5d, 0x25, 0x0e, 0x01, 0xb5, 0x57, 0x1a, 0xf4, 0xc3, 0xd9, 0x2d, 0xc0, 0x2a, 0x56, 0x1f, 0x22, 
  0x4d, 0xec, 0xcb, 0x2a, 0xc9, 0x22, 0xfe, 0x5a, 0x49, 0xba, 0xc8, 0xd1, 0x48, 0xd9, 0xf2, 0xe5, 
  0xeb, 0xbc, 0xf1, 0xec, 0x8a, 0x02, 0x9e, 0xef, 0xb4, 0x2b, 0x29, 0xfc, 0x2b, 0xec, 0xc1, 0x36, 
  0xc4, 0x25, 0xc3, 0xce, 0x0c, 0xd6, 0xbb, 0x1e, 0x7f, 0x2f, 0xc9, 0xef, 0xf3, 0xf3, 0x41, 0x16, 
  0xf0, 0xb7, 0xe9, 0xb8, 0xf4, 0xbf, 0xd4, 0x31, 0xd0, 0x09, 0xfe, 0xee, 0xe1, 0x0b, 0x67, 0x21, 
  0x0e, 0xc7, 0xf0, 0xe9, 0x3a, 0x02, 0xea, 0xbc, 0x3f, 0xc1, 0xd7, 0x25, 0x3f, 0x32, 0xbe, 0xd7, 
  0x04, 0x41, 0xc4, 0x0e, 0xc0, 0x52, 0x16, 0x4c, 0x01, 0xee, 0xaa, 0x05, 0xd9, 0x4b, 0xd2, 0xc7, 
  0xfc, 0xed, 0x3c, 0xb6, 0x4e, 0x34, 0xbc, 0x38, 0xb8, 0xd2, 0x4d, 0xdd, 0x3b, 0xf7, 0xba, 0x37, 
  0xc2, 0xff, 0xf1, 0xf4, 0xf8, 0x38, 0xf0, 0xfc, 0x43, 0x04, 0x25, 0x42, 0xc3, 0x29, 0x6a, 0xf4, 
  0xf9, 0x3d, 0x1c, 0xd1, 0xe7, 0xb4, 0xfa, 0x3e, 0xf6, 0xa2, 0x4a, 0x5c, 0xfc, 0x79, 0xa9, 0xca, 
  0x88, 0xdd, 0xb0, 0xea, 0xd4, 0x25, 0xec, 0x3d, 0xd4, 0x16, 0x5d, 0x42, 0xe1, 0x28, 0x2a, 0xd4, 
  0x0d, 0xc9, 0x14, 0x14, 0x18, 0x67, 0x0f, 0xd1, 0xca, 0xd7, 0xdc, 0x08, 0x13, 0x15, 0x14, 0x8c, 
  0xd7, 0xb2, 0xd2, 0x9c, 0x1e, 0xc0, 0x57, 0xbb, 0x1c, 0x10, 0x13, 0x19, 0x28, 0xf8, 0xbd, 0x7f, 
  0xce, 0xce, 0xf2, 0x21, 0xd4, 0xb3, 0x5a, 0x38, 0x04, 0xc0, 0x06, 0xf3, 0xc4, 0x53, 0x3c, 0xea, 
  0x51, 0x12, 0x29, 0x23, 0xac, 0xeb, 0x08, 0x04, 0xe9, 0x48, 0x1e, 0xe5, 0x47, 0x04, 0xd2, 0x0c, 
  0x4d, 0x20, 0x07, 0xf4, 0xc9, 0xd9, 0xec, 0x00, 0xee, 0xac, 0x1b, 0xd7, 0x0f, 0xb3, 0x29, 0xf0, 
  0x0d, 0x2f, 0xb3, 0xfa, 0xd9, 0x84, 0xe7, 0x44, 0x56, 0xfd, 0xc3, 0x00, 0x32, 0x14, 0x21, 0xb8, 
  0xa5, 0xcf, 0x4f, 0xc8, 0x21, 0xd1, 0x0e, 0xdf, 0x05, 0xda, 0xd6, 0x20, 0x33, 0x0c, 0x90, 0xf2, 
  0xaa, 0x37, 0x81, 0xfe, 0xf2, 0xe0, 0x36, 0x56, 0x3f, 0xe2, 0xda, 0xd3, 0xde, 0x5e, 0x2d, 0x03, 
  0x26, 0xfb, 0xc5, 0x20, 0x2c, 0x26, 0xea, 0xc6, 0x27, 0x22, 0xca, 0xc5, 0x0d, 0xf3, 0xc2, 0x44, 
  0x4e, 0xf5, 0xef, 0xe9, 0x3e, 0x14, 0x45, 0xdf, 0x17, 0x09, 0xec, 0xea, 0xf2, 0x38, 0xfb, 0x1a, 
  0xbc, 0xdb, 0x23, 0x58, 0x39, 0xd4, 0xe8, 0xbf, 0x44, 0x48, 0x23, 0x4e, 0xf6, 0x41, 0x3b, 0x42, 
  0x4f, 0xd4, 0xeb, 0x3c, 0xce, 0xe9, 0x50, 0x64, 0xbb, 0xd7, 0x1b, 0x00, 0x22, 0xca, 0xc3, 0xf7, 
  0xcd, 0x81, 0xe2, 0x2c, 0x3d, 0x35, 0x1b, 0xce, 0x58, 0x39, 0xab, 0x15, 0xda, 0xad, 0xad, 0xf4, 
  0x32, 0x26, 0xac, 0x09, 0xa3, 0xbd, 0x2b, 0x5e, 0xee, 0x0d, 0x21, 0xfa, 0x02, 0x3a, 0x0d, 0x4e, 
  0xe2, 0xe3, 0xfd, 0xe9, 0xa5, 0x2b, 0x23, 0xd1, 0xb8, 0xad, 0x3a, 0x4c, 0xfe, 0xc7, 0x16, 0x35, 
  0x91, 0xdf, 0x50, 0xeb, 0x14, 0x12, 0xf5, 0x6e, 0xde, 0x40, 0xc8, 0x6c, 0xe8, 0xdc, 0x2e, 0x3e, 
  0x31, 0xda, 0x02, 0xc9, 0xc1, 0x40, 0xb9, 0xd2, 0xe6, 0x31, 0xff, 0xd9, 0xf8, 0xea, 0x62, 0xd4, 
  0xde, 0x01, 0xdb, 0xbe, 0xed, 0xdf, 0x3c, 0x1e, 0xee, 0x2f, 0xde, 0x5e, 0x2e, 0xfc, 0x25, 0xbf, 
  0xf6, 0x09, 0xc6, 0xeb, 0x21, 0xd7, 0xfa, 0xfd, 0x32, 0x2e, 0x1c, 0x0f, 0x37, 0x13, 0x37, 0x08, 
  0x26, 0x04, 0x37, 0x0a, 0xfe, 0x34, 0x20, 0x45, 0x11, 0x2c, 0xd8, 0xe0, 0xf0, 0xa4, 0xe9, 0xfa, 
  0xff, 0x2d, 0xd8, 0xd5, 0x33, 0x29, 0xe5, 0xd7, 0xe8, 0xf2, 0x1a, 0xe2, 0x1b, 0xd0, 0xf2, 0xe6, 
  0xf7, 0x35, 0xe5, 0x29, 0xf0, 0xfc, 0x2a, 0xeb, 0xef, 0xef, 0xec, 0xef, 0xf3, 0xca, 0x0c, 0x23, 
  0xf4, 0x08, 0xd0, 0x06, 0xeb, 0x22, 0xb5, 0xf6, 0xd6, 0xdf, 0xd2, 0xe5, 0xe3, 0xcf, 0xd6, 0xd4, 
  0x0d, 0x19, 0xdf, 0x05, 0xf0, 0x20, 0xf9, 0x0b, 0xe0, 0xed, 0x0e, 0x16, 0xe0, 0xe4, 0xeb, 0x0a, 
  0x2e, 0x81, 0xdb, 0xd7, 0x22, 0x18, 0x38, 0xc9, 0xd9, 0xd5, 0x28, 0xb1, 0xe1, 0xdc, 0xe1, 0xeb, 
  0xd4, 0xcb, 0x1e, 0x85, 0x3c, 0x29, 0x3b, 0x1f, 0xc4, 0xf7, 0xf8, 0x0b, 0xd2, 0x1d, 0xb8, 0xc6, 
  0x01, 0xef, 0x2b, 0xfb, 0x02, 0xe0, 0x16, 0xf2, 0x0d, 0x34, 0x33, 0xd9, 0xda, 0x36, 0xf5, 0xe1, 
  0x02, 0x16, 0xdf, 0x2a, 0x15, 0xf7, 0xcd, 0xf2, 0xf9, 0x0b, 0x0f, 0x07, 0xf6, 0xd5, 0x13, 0xca, 
  0xff, 0xde, 0x0a, 0xe6, 0x30, 0x0c, 0x04, 0x30, 0xc9, 0xc6, 0xc4, 0x11, 0x1a, 0xea, 0xd8, 0xef, 
  0xcf, 0xe4, 0xff, 0x36, 0xd9, 0x04, 0x1a, 0x36, 0x2c, 0xfd, 0xdf, 0xce, 0xfc, 0xff, 0xf5, 0xe9, 
  0xed, 0xeb, 0x0c, 0xf6, 0x29, 0x05, 0x9a, 0x2a, 0xdf, 0xd5, 0xea, 0xde, 0x35, 0xe9, 0xfc, 0xe0, 
  0xe2, 0x39, 0xa6, 0xf6, 0xc7, 0x12, 0x14, 0x1d, 0x05, 0x25, 0xf2, 0x0a, 0xef, 0x33, 0x1f, 0xec, 
  0xe5, 0x81, 0x38, 0x0a, 0x0d, 0x39, 0xe1, 0xe3, 0xf1, 0xee, 0x02, 0x13, 0x23, 0xf6, 0x13, 0xcd, 
  0xed, 0xdd, 0x1a, 0xdb, 0xff, 0xfe, 0xe5, 0x06, 0x20, 0xe3, 0x1f, 0xf6, 0xe7, 0xf3, 0x01, 0xda, 
  0xf9, 0x5c, 0x81, 0xf6, 0xcf, 0xdd, 0x30, 0xcc, 0xaa, 0xd8, 0x1f, 0xe2, 0x9e, 0xfb, 0xef, 0xf1, 
  0x30, 0x43, 0x17, 0xd2, 0xcb, 0x99, 0x2e, 0x34, 0x00, 0x3f, 0xd2, 0xd8, 0xf8, 0x1a, 0xd1, 0x15, 
  0xde, 0xe8, 0x54, 0x21, 0x9e, 0xbe, 0xb7, 0x44, 0x16, 0x35, 0x13, 0xfc, 0xd9, 0x24, 0x04, 0xc5, 
  0x36, 0x20, 0x15, 0xee, 0xe6, 0xc2, 0x2e, 0xf8, 0xb9, 0xd0, 0x2c, 0xdf, 0xef, 0xff, 0xbe, 0xd9, 
  0x16, 0x29, 0x00, 0x48, 0x0e, 0x42, 0xf8, 0x9d, 0xf6, 0xda, 0x23, 0xb8, 0x40, 0xef, 0x26, 0x23, 
  0xef, 0xff, 0x3c, 0x26, 0x31, 0x8b, 0x07, 0xcf, 0x24, 0x26, 0xf4, 0xd7, 0x44, 0x34, 0x4b, 0xcd, 
  0x0a, 0xe6, 0x44, 0xb7, 0xca, 0xc9, 0x28, 0xc7, 0xe6, 0xda, 0x0a, 0x2b, 0xc8, 0x0e, 0x07, 0x0d, 
  0x27, 0xe3, 0xda, 0xbe, 0xe1, 0x05, 0xb0, 0xab, 0xdc, 0xd4, 0x30, 0xe2, 0x3c, 0x30, 0xf8, 0xe5, 
  0x96, 0x07, 0xf2, 0x55, 0x04, 0x05, 0xd5, 0x05, 0xff, 0x14, 0xfc, 0xa7, 0xe0, 0x36, 0xb0, 0x00, 
  0x27, 0x4f, 0xc9, 0x19, 0x4e, 0xa1, 0x6d, 0xb1, 0xa3, 0x5e, 0x51, 0xcf, 0x1a, 0x37, 0xe8, 0xec, 
  0x07, 0xfa, 0x38, 0xe0, 0x00, 0xf1, 0x41, 0xf9, 0xb5, 0xf3, 0x10, 0x27, 0x90, 0xcc, 0xc7, 0x06, 
  0xf6, 0xe9, 0x27, 0xe9, 0xf3, 0xed, 0x9d, 0x12, 0x09, 0xdf, 0x3b, 0xec, 0xd3, 0xc8, 0x0e, 0x0e, 
  0x1f, 0xe3, 0x49, 0x02, 0xfb, 0x1a, 0x81, 0xd6, 0xaa, 0xe2, 0x21, 0xd0, 0xd6, 0xf2, 0x94, 0x0e, 
  0x06, 0x64, 0x6a, 0xcf, 0xcd, 0xe2, 0x09, 0x65, 0x81, 0xe3, 0xdb, 0xcc, 0xa3, 0xee, 0x03, 0xc9, 
  0x11, 0x0a, 0xde, 0xfb, 0x32, 0xe1, 0x37, 0xe9, 0x15, 0x03, 0xaa, 0xc0, 0x2e, 0xc6, 0xcd, 0x0d, 
  0xb4, 0x47, 0xd3, 0x2c, 0xe4, 0x9d, 0xef, 0xf3, 0x34, 0x2a, 0xac, 0xaf, 0xbf, 0x7e, 0xd1, 0x9b, 
  0xec, 0x44, 0xd2, 0x60, 0xb7, 0x1d, 0x2a, 0xa4, 0x2a, 0xd8, 0x30, 0xb1, 0x54, 0x6b, 0x04, 0x1a, 
  0x17, 0x35, 0xd6, 0x05, 0x4c, 0x56, 0x13, 0x37, 0xe0, 0x27, 0xa5, 0x1a, 0x59, 0x0d, 0x81, 0xff, 
  0x15, 0x40, 0xa2, 0x6e, 0xd2, 0xc0, 0x3c, 0xe1, 0xd7, 0x3c, 0x3a, 0xc2, 0xf2, 0x59, 0xe3, 0xc5, 
  0xc3, 0xc7, 0x45, 0x2f, 0x9e, 0x38, 0x05, 0x05, 0x26, 0xf9, 0xc7, 0xc4, 0xf7, 0x1f, 0x54, 0xb9, 
  0x39, 0xd7, 0xc4, 0x16, 0x32, 0x37, 0x1f, 0x00, 0x10, 0xbe, 0x2b, 0x2e, 0x0e, 0xa8, 0xbb, 0x6c, 
  0x9b, 0x5f, 0xd7, 0x17, 0x54, 0x3f, 0x2d, 0xe4, 0x64, 0x59, 0x53, 0x62, 0xbe, 0x30, 0xca, 0x60, 
  0x47, 0xef, 0xa8, 0x27, 0xd4, 0x30, 0xf0, 0xf0, 0x16, 0xf0, 0x18, 0xd3, 0x12, 0xa3, 0xce, 0xbc, 
  0x5a, 0xe5, 0x0b, 0xae, 0x06, 0x66, 0xda, 0x01, 0x2b, 0xd2, 0xcb, 0xd7, 0x0e, 0x0e, 0x23, 0x51, 
  0x51, 0xae, 0x59, 0x4b, 0x57, 0x15, 0xcd, 0x3a, 0xef, 0xdc, 0xef, 0xcf, 0x7c, 0x27, 0xf5, 0x09, 
  0x1d, 0xe2, 0xf0, 0xc8, 0x10, 0x2f, 0xc4, 0xe1, 0x45, 0x50, 0x57, 0xd5, 0xe1, 0x9e, 0x88, 0xe5, 
  0x49, 0xc8, 0xa2, 0xec, 0x03, 0xad, 0xc4, 0xbe, 0x32, 0xd1, 0xb8, 0x5c, 0x3e, 0x3a, 0xe4, 0x2e, 
  0x49, 0x28, 0x00, 0xb9, 0x51, 0x00, 0x9c, 0x49, 0x25, 0xae, 0xd5, 0x90, 0x9c, 0x46, 0xc7, 0xde, 
  0x0d, 0x10, 0x85, 0x54, 0xa2, 0xcb, 0x1a, 0x43, 0x2f, 0xa5, 0x5c, 0xff, 0xaf, 0x9b, 0xfa, 0x01, 
  0xfb, 0x7e, 0x23, 0x32, 0x5f, 0x0e, 0x62, 0xfd, 0xce, 0x78, 0x1c, 0x59, 0xdb, 0xe6, 0xfe, 0xf4, 
  0x20, 0x2b, 0xa9, 0xaf, 0xc0, 0x5d, 0xb1, 0x22, 0x3d, 0xef, 0x0d, 0xc7, 0x5a, 0x66, 0x34, 0x81, 
  0x38, 0xb0, 0xa8, 0x9b, 0x25, 0x54, 0x65, 0x44, 0xca, 0xcf, 0xfd, 0xef, 0x06, 0x14, 0xed, 0x66, 
  0x02, 0x02, 0x41, 0x25, 0x5f, 0xf0, 0x4d, 0x1a, 0x47, 0x03, 0x1b, 0xe4, 0x50, 0xc7, 0xd1, 0x04, 
  0xf4, 0x2e, 0x1a, 0xf8, 0xb1, 0xe3, 0x31, 0x0e, 0xd1, 0x16, 0x0f, 0xd0, 0x57, 0x1a, 0xaa, 0xd9, 
  0x1f, 0xee, 0xc8, 0xd4, 0x42, 0xd2, 0xd5, 0xc1, 0xc8, 0x3f, 0x8d, 0x17, 0xac, 0x25, 0xdb, 0x1e, 
  0xd7, 0xc4, 0xf2, 0xd1, 0xa3, 0xa7, 0x34, 0x0c, 0x06, 0x4a, 0x01, 0x45, 0x3a, 0x2b, 0x08, 0xc4, 
  0xe5, 0x25, 0x19, 0x2a, 0xa5, 0x3e, 0xe1, 0x09, 0x81, 0xa5, 0x03, 0x1d, 0x0d, 0xf4, 0x95, 0x02, 
  0x9c, 0x14, 0x06, 0xe6, 0xec, 0xbe, 0x4a, 0x4d, 0x2b, 0xf9, 0xe6, 0x04, 0x40, 0xc4, 0xc6, 0x40, 
  0xe6, 0x3d, 0x02, 0xc3, 0x35, 0x21, 0x3a, 0xf2, 0x1c, 0xc8, 0xeb, 0x49, 0xcb, 0x05, 0xf4, 0x81, 
  0x41, 0x3c, 0xf3, 0xbe, 0xe6, 0x56, 0xd9, 0xed, 0xfc, 0xdb, 0x0b, 0xca, 0x93, 0x12, 0x08, 0xc9, 
  0x9b, 0x12, 0xd3, 0x38, 0x10, 0xe5, 0x47, 0xc6, 0x35, 0x53, 0x2f, 0xe6, 0x1e, 0x38, 0x26, 0x8b, 
  0xb9, 0xb6, 0x5a, 0xee, 0x83, 0x48, 0x98, 0x3b, 0xfc, 0x59, 0xb5, 0x28, 0x61, 0x81, 0xfd, 0xe7, 
  0xdb, 0xa5, 0x97, 0xf8, 0xd2, 0xf7, 0x15, 0x55, 0x88, 0x12, 0x24, 0x86, 0xad, 0x13, 0xb6, 0xac, 
  0xb7, 0xa1, 0xa4, 0x66, 0xc6, 0x75, 0x15, 0xa3, 0xd6, 0xe8, 0x12, 0x94, 0xad, 0x89, 0x2d, 0xe9, 
  0x86, 0x53, 0x5d, 0xa4, 0x1a, 0x44, 0xac, 0xc9, 0xe9, 0x31, 0xa4, 0x3f, 0x19, 0x92, 0x3c, 0x86, 
  0xad, 0x29, 0x2d, 0x66, 0xf6, 0x87, 0xc2, 0xb7, 0xd3, 0x07, 0x43, 0xe5, 0x33, 0xa1, 0xdc, 0x9e, 
  0xa1, 0x3e, 0x51, 0x95, 0x98, 0x27, 0xec, 0xbb, 0x9f, 0x54, 0x57, 0x37, 0x43, 0xe2, 0xbd, 0xb9, 
  0x25, 0xe3, 0x87, 0x25, 0xd1, 0xb8, 0x17, 0x9b, 0x04, 0xef, 0x1c, 0x56, 0x16, 0xde, 0xc0, 0x24, 
  0xdf, 0xe5, 0x3d, 0x12, 0xe6, 0x26, 0x5e, 0x11, 0x09, 0x30, 0xa3, 0x34, 0x15, 0xda, 0xbe, 0xe9, 
  0xae, 0x0e, 0x3d, 0xb6, 0xdd, 0x0c, 0xfb, 0xc5, 0xd7, 0x2d, 0x66, 0xa8, 0xe8, 0xec, 0xcb, 0x52, 
  0x98, 0xe3, 0xf5, 0xeb, 0x2b, 0x1e, 0xda, 0xbc, 0xa7, 0xa5, 0x32, 0xe0, 0x23, 0xcf, 0xdc, 0xca, 
  0x03, 0x39, 0x04, 0xc9, 0x1e, 0x27, 0x51, 0xa9, 0xe3, 0x1f, 0xd2, 0xd8, 0x36, 0x33, 0x39, 0xf8, 
  0x08, 0xd7, 0x01, 0xd7, 0x01, 0x4f, 0x3b, 0xc0, 0x2c, 0xfd, 0x3d, 0xe6, 0x23, 0xf6, 0xde, 0x2b, 
  0xd1, 0x3e, 0x6b, 0x35, 0xf5, 0x05, 0xec, 0xf7, 0xcd, 0x21, 0x0f, 0xbf, 0xbc, 0x12, 0x19, 0x3a, 
  0x49, 0x68, 0xe9, 0x48, 0xd0, 0xd9, 0xce, 0xe3, 0x68, 0xba, 0xfa, 0x48, 0x4e, 0x49, 0xe9, 0x08, 
  0x21, 0x0e, 0x4b, 0xac, 0x0f, 0xee, 0x16, 0x57, 0x5c, 0x9d, 0x1c, 0x30, 0xdf, 0x30, 0x7f, 0x24, 
  0xb4, 0x33, 0xd8, 0x4d, 0x58, 0x03, 0x1b, 0xda, 0x4c, 0x15, 0xc4, 0xf8, 0xcf, 0xb4, 0x2d, 0x0d, 
  0x18, 0x11, 0xcc, 0x3f, 0x00, 0xba, 0xe1, 0xf3, 0xe8, 0x4e, 0x66, 0xcd, 0x0c, 0x52, 0x4e, 0x50, 
  0x9e, 0x22, 0xab, 0xaf, 0x93, 0x4c, 0x36, 0xf2, 0x25, 0xab, 0x6f, 0xed, 0xee, 0xd8, 0x46, 0x77, 
  0x1f, 0x1b, 0xed, 0x6d, 0x1a, 0x1f, 0xa7, 0x4a, 0x79, 0xbb, 0x57, 0xfe, 0xb5, 0xd2, 0xa2, 0xf7, 
  0xde, 0xbf, 0xf3, 0x1c, 0xbf, 0x1a, 0x4f, 0xce, 0xde, 0x56, 0x49, 0xd2, 0xbb, 0x4c, 0x5d, 0xbc, 
  0x3a, 0x7f, 0x6c, 0x13, 0x6a, 0x38, 0xd5, 0xe6, 0xc7, 0xa2, 0x09, 0xee, 0xcd, 0xca, 0xcd, 0x69, 
  0x02, 0x5d, 0x26, 0x32, 0x2f, 0xb7, 0x57, 0x2d, 0x61, 0x42, 0xe0, 0x1e, 0x1e, 0x20, 0x84, 0x66, 
  0x12, 0xd3, 0x2c, 0xc1, 0xf8, 0x23, 0xd9, 0xe9, 0xb8, 0xcd, 0x1d, 0x46, 0x49, 0xfa, 0xcf, 0x4d, 
  0xd6, 0xe9, 0xdf, 0x6f, 0xbe, 0xc1, 0x8c, 0xb5, 0x6b, 0xc9, 0xc6, 0x37, 0xfb, 0xc0, 0x29, 0xed, 
  0xbc, 0x76, 0x64, 0xe3, 0x31, 0x08, 0x09, 0xd9, 0x10, 0xe7, 0x30, 0xdb, 0xd7, 0xce, 0x82, 0xb9, 
  0x64, 0x41, 0xd7, 0x45, 0x1a, 0xe9, 0xb0, 0x10, 0x78, 0x7f, 0x08, 0x4f, 0x10, 0x30, 0x3f, 0xdf, 
  0xf5, 0xf8, 0x18, 0xfa, 0x2d, 0x37, 0x3c, 0x08, 0x20, 0xbe, 0xb0, 0x08, 0xaa, 0x43, 0xfc, 0x1f, 
  0xf5, 0x07, 0x2a, 0xec, 0xd3, 0xfd, 0x30, 0x26, 0x16, 0xf2, 0x0d, 0xb1, 0x21, 0x53, 0xe9, 0x75, 
  0xd9, 0xf5, 0x26, 0x3b, 0x61, 0xf5, 0x71, 0x3c, 0x41, 0x54, 0xf7, 0x2c, 0x5e, 0x26, 0xd3, 0x25, 
  0xf8, 0xd4, 0x0a, 0xad, 0x36, 0xe5, 0xb8, 0x01, 0x4f, 0x33, 0x2b, 0x28, 0x45, 0x2e, 0xda, 0xaf, 
  0xbe, 0xe4, 0xc7, 0x35, 0x44, 0x55, 0xe0, 0x2e, 0xf3, 0x35, 0x0f, 0x06, 0xe7, 0xdd, 0x25, 0x4b, 
  0xe6, 0xff, 0xc6, 0xc9, 0x2e, 0xc6, 0xe5, 0x37, 0x2d, 0x43, 0x09, 0xf9, 0x4f, 0xdc, 0xc5, 0xcf, 
  0xca, 0x33, 0x1b, 0x03, 0x3c, 0xd9, 0x17, 0x28, 0xbb, 0x0a, 0xdc, 0xf3, 0x2a, 0xcf, 0x0a, 0xba, 
  0xd9, 0xae, 0xb1, 0x17, 0xd5, 0x02, 0xf5, 0x23, 0x5c, 0x44, 0x81, 0x23, 0x42, 0x41, 0xf6, 0xf7, 
  0xf4, 0xc1, 0x21, 0x38, 0x31, 0x0e, 0x3c, 0x16, 0x04, 0xb7, 0xec, 0x03, 0xd4, 0xc2, 0x60, 0x31, 
  0x01, 0xdc, 0xd2, 0xfb, 0xe3, 0xf3, 0xf5, 0xe9, 0xf8, 0xb0, 0x4f, 0xf0, 0x20, 0xf6, 0x40, 0x25, 
  0x1d, 0xdd, 0xf7, 0x0b, 0x15, 0xe0, 0x33, 0x35, 0x29, 0x54, 0x4c, 0x3d, 0xf4, 0x5e, 0xf6, 0xd9, 
  0xe5, 0x07, 0x45, 0x17, 0xbd, 0x43, 0x03, 0xfb, 0xaa, 0x54, 0xeb, 0xad, 0x0a, 0xda, 0x46, 0x4a, 
  0xca, 0xf5, 0xd2, 0xcf, 0x31, 0x43, 0x06, 0xa8, 0xec, 0xf3, 0x47, 0x21, 0x0c, 0xed, 0xff, 0x2d, 
  0x09, 0x39, 0x38, 0x39, 0x22, 0xfc, 0x00, 0xca, 0xcc, 0x22, 0x33, 0x27, 0x16, 0xc5, 0xf3, 0xec, 
  0xfd, 0x2a, 0x03, 0xb1, 0xc5, 0xe7, 0xd4, 0x10, 0xfb, 0x26, 0xf0, 0x2e, 0xdd, 0x52, 0x2b, 0x22, 
  0x2e, 0x18, 0xc3, 0xcb, 0xe1, 0x0d, 0x24, 0x14, 0xe2, 0xbd, 0x3b, 0x3a, 0xd4, 0x0f, 0xd6, 0x0f, 
  0x03, 0x28, 0x1b, 0x1f, 0x0f, 0x0c, 0xc8, 0xe4, 0x38, 0x34, 0x28, 0x20, 0xb9, 0xeb, 0x2c, 0xc6, 
  0xf5, 0xe7, 0x49, 0x4b, 0x3e, 0xd1, 0xbf, 0x26, 0x3d, 0x0f, 0xe1, 0xca, 0x36, 0x36, 0x50, 0x3f, 
  0xc9, 0x09, 0x81, 0x0c, 0xc1, 0xfc, 0xec, 0xeb, 0xdb, 0x39, 0x25, 0xd0, 0xd5, 0xe8, 0x3b, 0x60, 
  0xce, 0xe9, 0x40, 0xeb, 0x3a, 0x2e, 0x26, 0x2e, 0xd8, 0x36, 0xdb, 0xfa, 0x1b, 0xfc, 0xca, 0x12, 
  0x1c, 0xd3, 0x20, 0x24, 0x05, 0x40, 0xc5, 0xf7, 0x14, 0xe6, 0xe2, 0xdb, 0x1f, 0x08, 0xc7, 0x3e, 
  0x21, 0xec, 0xf5, 0xda, 0xd4, 0x17, 0xfe, 0xe1, 0x06, 0xf1, 0xf8, 0x27, 0xbe, 0x15, 0x03, 0x22, 
  0x00, 0xe3, 0x46, 0x15, 0x4c, 0xf5, 0xe0, 0xe0, 0xbd, 0x9e, 0x24, 0xdf, 0xfa, 0x42, 0xfe, 0xce, 
  0x27, 0xbb, 0xaa, 0xe0, 0x12, 0xd3, 0x23, 0xc8, 0xd9, 0x23, 0xbf, 0xf9, 0xe7, 0x45, 0xb0, 0x27, 
  0xbe, 0x57, 0x18, 0x1f, 0xc6, 0x2b, 0xeb, 0xba, 0x01, 0x97, 0xb6, 0x05, 0xa0, 0xd0, 0x0c, 0x33, 
  0x64, 0xdb, 0xf5, 0xa0, 0x3d, 0xb0, 0x7b, 0xfb, 0xb1, 0x02, 0x29, 0xe4, 0x14, 0xbf, 0x22, 0x10, 
  0xf0, 0x22, 0x24, 0xbd, 0xe8, 0xe1, 0x22, 0x3b, 0x46, 0xaf, 0x0e, 0x20, 0x18, 0x16, 0x35, 0xb2, 
  0x32, 0xb5, 0x0a, 0x52, 0x38, 0xb0, 0xad, 0x26, 0xcc, 0xc9, 0x31, 0xda, 0x0a, 0x2f, 0xfe, 0x41, 
  0xab, 0x81, 0x1f, 0x54, 0xd5, 0x0c, 0xff, 0x40, 0x6a, 0xbd, 0x42, 0xc4, 0xa9, 0x37, 0x1a, 0xee, 
  0x16, 0xfc, 0x06, 0xf2, 0x0c, 0x0c, 0x0a, 0xf1, 0xf3, 0x06, 0xf4, 0xfe, 0x0b, 0x24, 0x1d, 0x0a, 
  0x1d, 0x0e, 0x0a, 0xf0, 0xe6, 0xf0, 0xe9, 0xf4, 0xf6, 0xf8, 0x07, 0x18, 0xef, 0xe5, 0xec, 0x0a, 
  0xff, 0x08, 0x12, 0x0a, 0x03, 0x06, 0xf4, 0xe5, 0xea, 0xf6, 0xea, 0xf1, 0xf8, 0xe7, 0x02, 0x02, 
  0x12, 0x04, 0x0c, 0xf3, 0xfa, 0xee, 0x01, 0x06, 0xff, 0x22, 0xfc, 0xf3, 0xf3, 0x02, 0x12, 0xef, 
  0xed, 0xed, 0x0b, 0xf1, 0x14, 0x00, 0xb1, 0x1b, 0xe2, 0x0d, 0x0d, 0x0c, 0x20, 0xf9, 0xee, 0xee, 
  0xe5, 0x05, 0xc2, 0x01, 0x01, 0x13, 0x04, 0x0d, 0xcf, 0x0d, 0x18, 0x12, 0xf4, 0x09, 0xf9, 0x13, 
  0xfa, 0x81, 0x02, 0xf9, 0x12, 0x14, 0xed, 0xfe, 0x0e, 0x0f, 0x02, 0xed, 0x12, 0xf6, 0x0a, 0x09, 
  0x11, 0xce, 0xf2, 0x00, 0x1a, 0x16, 0x1f, 0xea, 0x16, 0xf1, 0x11, 0xf6, 0x10, 0xee, 0x13, 0x0a, 
  0x06, 0x18, 0x23, 0xc8, 0xdd, 0x05, 0x1b, 0xd3, 0xfd, 0xed, 0xed, 0xf3, 0x36, 0x29, 0x39, 0x0d, 
  0xfe, 0xda, 0x4d, 0x3d, 0x07, 0x23, 0xf9, 0xc0, 0xf7, 0xcb, 0x37, 0xfe, 0xee, 0xd7, 0x15, 0x0f, 
  0xd3, 0xc9, 0x39, 0x31, 0x0e, 0xd3, 0xcc, 0xbf, 0x28, 0x0b, 0xf6, 0xf8, 0x24, 0x26, 0x11, 0x2e, 
  0xf2, 0x20, 0x0a, 0x00, 0xd5, 0x3b, 0x11, 0x06, 0x0f, 0xf9, 0x0b, 0xdd, 0x44, 0xfd, 0x1b, 0x1e, 
  0x34, 0x01, 0xfe, 0xa9, 0x45, 0xfc, 0x26, 0x3e, 0x39, 0x13, 0x1f, 0xf4, 0xf5, 0x3f, 0x02, 0xde, 
  0x2d, 0xb5, 0xea, 0xe6, 0xee, 0xf2, 0xc6, 0x00, 0xcb, 0x19, 0x36, 0x4c, 0x2f, 0x1a, 0xe2, 0x2b, 
  0x24, 0xe4, 0x0b, 0x2e, 0xdf, 0xf0, 0x0c, 0xcf, 0xe3, 0xe5, 0x41, 0x45, 0xdc, 0x2e, 0x26, 0xdd, 
  0x04, 0x81, 0x04, 0xec, 0x07, 0x16, 0x0d, 0xdb, 0x06, 0xf4, 0x06, 0x2e, 0x0b, 0xfa, 0x05, 0xad, 
  0x1a, 0xf9, 0xfd, 0xec, 0x1b, 0x00, 0xf8, 0x10, 0x0a, 0xfb, 0x00, 0xbf, 0xb3, 0x17, 0xe6, 0xfa, 
  0xd7, 0xf3, 0xd9, 0xdd, 0xf0, 0xf6, 0xed, 0xf8, 0x03, 0xec, 0x18, 0xdd, 0x1c, 0xfc, 0x34, 0x11, 
  0xfc, 0x1c, 0xdd, 0xdf, 0xe3, 0xff, 0xf3, 0x04, 0xec, 0xf9, 0x02, 0x09, 0x15, 0x13, 0xf0, 0x06, 
  0x0f, 0x12, 0x0d, 0x10, 0x05, 0xda, 0x14, 0xed, 0x27, 0xdc, 0xf9, 0x16, 0x10, 0x05, 0x13, 0x0d, 
  0xfc, 0x03, 0x07, 0xce, 0x0d, 0x1a, 0xd3, 0x06, 0x10, 0x25, 0x10, 0x19, 0x07, 0xfd, 0x05, 0xf1, 
  0x16, 0xff, 0xc1, 0xe7, 0x10, 0xe5, 0x1d, 0xd5, 0x0c, 0xe2, 0xce, 0x81, 0xe5, 0x00, 0x03, 0xea, 
  0x1c, 0x1c, 0x0d, 0x24, 0x09, 0x20, 0x0a, 0xf8, 0xea, 0xe5, 0xd5, 0x21, 0xd5, 0xeb, 0x14, 0xfe, 
  0xfa, 0xef, 0xdf, 0x2c, 0xde, 0xfc, 0x1a, 0xe6, 0x21, 0xfe, 0xd6, 0xd7, 0xee, 0xe2, 0x13, 0x2e, 
  0x0a, 0xe5, 0xbd, 0xb7, 0xe9, 0xb2, 0xc7, 0xf4, 0x0c, 0x37, 0x2b, 0x4d, 0x6d, 0x54, 0xe9, 0xc5, 
  0xd8, 0xee, 0x08, 0xba, 0xca, 0x6c, 0xdf, 0xc9, 0xa0, 0x24, 0xa3, 0x11, 0x39, 0x0c, 0x90, 0xca, 
  0xd4, 0xcf, 0xf7, 0x5e, 0x51, 0xdd, 0x51, 0xc6, 0xc7, 0x35, 0xcb, 0x45, 0x53, 0x55, 0x20, 0x10, 
  0x0c, 0xa0, 0x0d, 0x31, 0x1f, 0x37, 0xf4, 0xce, 0xe5, 0x01, 0x65, 0x37, 0xcc, 0xe0, 0x7f, 0x1e, 
  0x18, 0x6c, 0x43, 0x2e, 0xd5, 0x32, 0xbd, 0x3e, 0x82, 0x2b, 0xee, 0xe8, 0xe4, 0x5f, 0x0a, 0x23, 
  0x16, 0xf6, 0xde, 0x34, 0x51, 0xe7, 0xfb, 0x43, 0x46, 0x16, 0x5b, 0xb8, 0x5d, 0x47, 0x23, 0x49, 
  0x15, 0x4e, 0xcf, 0xa2, 0xfd, 0x39, 0x2a, 0x32, 0x07, 0x06, 0x03, 0x19, 0xc7, 0x60, 0xbc, 0xc9, 
  0x0d, 0x66, 0xba, 0xf7, 0x6f, 0xc6, 0x4c, 0xb1, 0xfd, 0x2a, 0x3f, 0xe6, 0xc1, 0xbd, 0x99, 0xea, 
  0xca, 0xed, 0x26, 0xee, 0x0a, 0xcd, 0xfe, 0xcb, 0xb6, 0x8c, 0x2f, 0x9e, 0xd2, 0x08, 0x9c, 0xfc, 
  0x03, 0xa4, 0x34, 0xf3, 0x22, 0xd3, 0x99, 0xbc, 0x00, 0xdc, 0x21, 0x25, 0x44, 0xa2, 0x06, 0xe3, 
  0x24, 0x2e, 0x92, 0x1b, 0xd6, 0x3d, 0x3c, 0x1f, 0x94, 0x35, 0x2f, 0x14, 0xff, 0x3d, 0xe5, 0x52, 
  0xf2, 0x14, 0x22, 0x9a, 0xc3, 0x2e, 0xe0, 0x1d, 0xc5, 0x32, 0xa8, 0xfe, 0xef, 0xc9, 0x42, 0xe6, 
  0x47, 0x13, 0xec, 0xe0, 0xa1, 0xc0, 0x27, 0xe9, 0xb0, 0xc8, 0xf7, 0x5b, 0xef, 0xdc, 0xe9, 0x44, 
  0xa1, 0x24, 0xeb, 0x30, 0x40, 0x01, 0x36, 0xfc, 0xd9, 0x07, 0x81, 0x96, 0x9c, 0xae, 0xd6, 0x1a, 
  0xff, 0xdd, 0xb9, 0xed, 0x00, 0x1f, 0x43, 0x3e, 0x04, 0x43, 0x4a, 0x02, 0x16, 0xf5, 0x3b, 0x11, 
  0xbf, 0xa5, 0x2c, 0x34, 0x01, 0x1e, 0xde, 0xb1, 0xd5, 0x14, 0xab, 0x3a, 0xf2, 0x56, 0xaf, 0xef, 
  0x09, 0x0a, 0x47, 0x1d, 0x71, 0x42, 0xe6, 0xcf, 0xbf, 0xac, 0xee, 0xd2, 0xaf, 0xa9, 0xa3, 0xa9, 
  0xf9, 0xc8, 0x46, 0x5e, 0x4c, 0x09, 0x15, 0x35, 0x08, 0x15, 0xc5, 0xe4, 0x47, 0x59, 0x64, 0x96, 
  0x03, 0x0b, 0xed, 0xca, 0x25, 0x1c, 0xe3, 0x1b, 0x40, 0x38, 0xc0, 0x5c, 0x65, 0x25, 0x03, 0x64, 
  0x4d, 0xd3, 0xb5, 0xc5, 0x17, 0x03, 0x31, 0x97, 0xd0, 0x2a, 0x39, 0x43, 0xac, 0x8d, 0x23, 0x10, 
  0xd9, 0xe8, 0xda, 0xc3, 0xfe, 0x03, 0xf1, 0xbe, 0xe1, 0xe9, 0xc3, 0xae, 0x3e, 0xeb, 0x52, 0xb7, 
  0xae, 0xf9, 0xa4, 0x07, 0x4b, 0xd8, 0x3a, 0x99, 0x81, 0x46, 0x2b, 0xee, 0xd5, 0x1e, 0x21, 0x92, 
  0x47, 0xb5, 0x2c, 0xf0, 0xae, 0x0a, 0x0a, 0xf3, 0x5a, 0x4e, 0xe1, 0x16, 0xe5, 0x98, 0xde, 0xdd, 
  0x98, 0x84, 0x17, 0x4f, 0xf7, 0xc3, 0xbc, 0xec, 0xc4, 0xe5, 0x01, 0xa2, 0x37, 0xb1, 0xd8, 0xac, 
  0xc6, 0xc0, 0xe7, 0xe4, 0x8c, 0x62, 0xe0, 0x1c, 0xae, 0x1a, 0xd0, 0xa8, 0xe3, 0xec, 0xdb, 0xd8, 
  0xbe, 0x58, 0x53, 0xef, 0xd9, 0xd5, 0xc9, 0x13, 0x4f, 0x16, 0x40, 0xdc, 0x08, 0x3b, 0xd6, 0xed, 
  0x4d, 0x2c, 0x5d, 0x0d, 0x3a, 0xc6, 0x71, 0x36, 0xde, 0xf2, 0xc3, 0x37, 0x07, 0x22, 0xcf, 0xff, 
  0xf0, 0xb5, 0xf9, 0xbb, 0xbb, 0x81, 0xea, 0x56, 0xe2, 0xda, 0x39, 0xdb, 0xab, 0x34, 0x58, 0xfd, 
  0x32, 0x34, 0x27, 0x46, 0xe8, 0xb5, 0xe6, 0xc0, 0x87, 0xf1, 0x1d, 0x53, 0x0b, 0xdc, 0x0b, 0x41, 
  0xdc, 0x59, 0x34, 0xc6, 0xc5, 0x22, 0x14, 0x14, 0x3f, 0xf9, 0x26, 0xc7, 0xc7, 0x24, 0xfb, 0x55, 
  0xed, 0xd0, 0x0a, 0xe4, 0x53, 0x4a, 0x37, 0xe0, 0xe3, 0x1c, 0xfc, 0x05, 0x1d, 0x0a, 0xc9, 0xf6, 
  0x1f, 0xcd, 0x21, 0x20, 0xc6, 0x24, 0xcb, 0xea, 0xa0, 0x46, 0xc4, 0x2a, 0x24, 0xc2, 0x15, 0x24, 
  0xee, 0xee, 0xab, 0xca, 0x1d, 0xfb, 0xae, 0xcd, 0x2b, 0xc7, 0x17, 0xd0, 0x2c, 0xce, 0x3c, 0xc8, 
  0xcc, 0xca, 0xfe, 0xd8, 0x11, 0x9c, 0xc6, 0xc2, 0x2b, 0x16, 0xf2, 0xd1, 0x15, 0xd7, 0x1a, 0x28, 
  0x41, 0xe9, 0xed, 0xa4, 0xbf, 0x31, 0xfd, 0x46, 0xb1, 0x00, 0xd3, 0xcb, 0x1e, 0xb2, 0x0d, 0x05, 
  0x32, 0xd0, 0x1a, 0xbd, 0x00, 0x27, 0xf6, 0xc3, 0xcc, 0xd5, 0xf7, 0x16, 0xbd, 0xc9, 0x49, 0xff, 
  0xc8, 0xd6, 0xbe, 0x41, 0xad, 0x81, 0xe7, 0x06, 0x04, 0xf8, 0xee, 0xa9, 0x46, 0xc2, 0x04, 0x40, 
  0xd5, 0xd3, 0xc9, 0x9a, 0x2e, 0xda, 0x3a, 0xd8, 0x14, 0x4b, 0x04, 0xff, 0xc9, 0x44, 0x23, 0x3d, 
  0xf4, 0xe9, 0xc7, 0x08, 0x0f, 0x45, 0x18, 0x31, 0xf1, 0x5c, 0xb0, 0x2d, 0xd1, 0xb3, 0x07, 0x07, 
  0xe4, 0xc8, 0x4e, 0x09, 0xd1, 0xbf, 0xd9, 0xf8, 0xd8, 0xea, 0xcf, 0x39, 0xeb, 0x1c, 0xe2, 0xcf, 
  0x15, 0x64, 0x42, 0x46, 0xb7, 0x12, 0x67, 0x04, 0x67, 0x3a, 0xce, 0x4d, 0x0e, 0xf1, 0xd4, 0xd9, 
  0x10, 0x12, 0x5b, 0x6c, 0x91, 0xc7, 0xf4, 0xde, 0x26, 0x1b, 0xb3, 0x36, 0xe7, 0x1c, 0x41, 0x3a, 
  0x34, 0xeb, 0xbf, 0xfc, 0x53, 0x12, 0xa1, 0x4e, 0x4f, 0x02, 0xef, 0xcc, 0x0e, 0xec, 0x8c, 0xe4, 
  0xbc, 0xa2, 0xde, 0x1d, 0xc0, 0x9e, 0x40, 0xee, 0xfa, 0xa9, 0x4c, 0xeb, 0xbb, 0x28, 0x13, 0xeb, 
  0x93, 0x00, 0xda, 0xca, 0x08, 0xbf, 0xdc, 0xab, 0x4d, 0x27, 0xe3, 0x10, 0xbb, 0x5b, 0xfa, 0x01, 
  0xca, 0xf4, 0x63, 0xc5, 0x09, 0xdd, 0x73, 0x69, 0x45, 0x45, 0x28, 0xf0, 0xf9, 0x4e, 0xfe, 0xfc, 
  0x0a, 0x52, 0xc7, 0x3c, 0x53, 0x68, 0x9c, 0xbd, 0x25, 0x24, 0xe5, 0x4f, 0xc9, 0x26, 0x6a, 0xd0, 
  0x7b, 0x7f, 0x44, 0xc1, 0x4d, 0x67, 0x53, 0xba, 0x44, 0x7e, 0x0d, 0xa0, 0x49, 0x81, 0xfc, 0xc5, 
  0x47, 0xe6, 0xc2, 0xec, 0x7a, 0xee, 0xfd, 0xd6, 0xdf, 0x0e, 0x19, 0x15, 0x5c, 0xbe, 0xfc, 0xb9, 
  0xf2, 0x2c, 0xc6, 0xa7, 0xf5, 0xf6, 0x3f, 0x09, 0xdb, 0xe7, 0x4d, 0x39, 0x3e, 0x3b, 0xbd, 0xfe, 
  0x94, 0xc3, 0xce, 0xda, 0x4b, 0x04, 0x44, 0x2d, 0x35, 0x38, 0x31, 0x00, 0xad, 0xd7, 0xdc, 0x4b, 
  0x78, 0x70, 0xe7, 0xee, 0x6e, 0x7f, 0x65, 0xc0, 0xc8, 0xdd, 0xec, 0xf9, 0x57, 0x19, 0x90, 0x3a, 
  0x92, 0x06, 0xac, 0x40, 0xde, 0x46, 0xaa, 0x1e, 0xb7, 0x3e, 0xd0, 0xad, 0x04, 0xe6, 0xd1, 0x55, 
  0xc7, 0x3f, 0x32, 0x38, 0x19, 0x4d, 0xca, 0xe6, 0x00, 0xb2, 0xac, 0x19, 0xc8, 0x8d, 0x04, 0xfb, 
  0x32, 0x14, 0x3d, 0x66, 0x0f, 0xf6, 0x75, 0xd7, 0xca, 0x3d, 0xfe, 0xf8, 0xf9, 0x2f, 0x46, 0xab, 
  0xb2, 0x3a, 0xdb, 0x5e, 0x58, 0x0f, 0x6b, 0x41, 0xe5, 0x95, 0x3a, 0x1b, 0x1d, 0x6b, 0x08, 0x26, 
  0xdf, 0x1f, 0x50, 0xcd, 0x10, 0xd7, 0x26, 0x3f, 0x19, 0xe7, 0xd1, 0xff, 0x0b, 0x1a, 0xff, 0x00, 
  0xe7, 0xd8, 0xda, 0x17, 0xd4, 0x0a, 0xcf, 0x27, 0xda, 0xdf, 0xd5, 0xe1, 0xf1, 0xd5, 0xbb, 0xf6, 
  0x45, 0xf3, 0xec, 0xaa, 0x10, 0xc9, 0xd5, 0xf1, 0xb8, 0x17, 0xf9, 0xd2, 0xe8, 0x05, 0x38, 0xd9, 
  0xf3, 0x23, 0x29, 0x32, 0x12, 0x9f, 0xdc, 0xe5, 0x36, 0xda, 0x51, 0xeb, 0xf9, 0xde, 0x4f, 0x14, 
  0xe4, 0x15, 0x10, 0xd9, 0xbb, 0x1e, 0xea, 0xf3, 0x05, 0xce, 0x2b, 0x41, 0xf4, 0x28, 0x15, 0x1c, 
  0x27, 0x25, 0x81, 0xe4, 0x09, 0x40, 0x40, 0x19, 0x37, 0xe9, 0xf8, 0xf4, 0xbc, 0xdc, 0x2c, 0x3b, 
  0xf5, 0x89, 0xe2, 0xd7, 0x35, 0xea, 0x03, 0x0c, 0x1b, 0xeb, 0x47, 0xee, 0xe1, 0x0f, 0x40, 0xb7, 
  0x24, 0x04, 0x39, 0xd0, 0x33, 0x2b, 0x3c, 0x1b, 0xc8, 0x19, 0xf3, 0xa4, 0xdf, 0x22, 0xf6, 0x51, 
  0xfe, 0x9d, 0xce, 0xeb, 0x28, 0xdf, 0x01, 0xfe, 0x1b, 0xfe, 0x12, 0x0c, 0xcf, 0x08, 0x2c, 0xc4, 
  0x18, 0xce, 0x2b, 0xe8, 0x22, 0x24, 0x14, 0x26, 0xb7, 0xdc, 0xf8, 0xd7, 0xc5, 0x4f, 0x2f, 0xd0, 
  0x35, 0xec, 0x15, 0xcf, 0xcc, 0xfc, 0x39, 0xe2, 0xc5, 0xcf, 0xe1, 0xd4, 0x1e, 0x29, 0xfd, 0x2c, 
  0x26, 0x39, 0x24, 0x5d, 0xc7, 0x43, 0x3b, 0xee, 0xd0, 0x03, 0xb9, 0x15, 0x09, 0xc6, 0xe4, 0xdc, 
  0xe7, 0x05, 0xdb, 0xec, 0xef, 0xa3, 0x37, 0xc7, 0xfb, 0xd7, 0xf0, 0xd1, 0x25, 0x0f, 0x25, 0xe2, 
  0x1e, 0xf7, 0x0e, 0xf4, 0x00, 0xe0, 0x1f, 0x04, 0x4e, 0xea, 0xbe, 0xc7, 0xdf, 0xf3, 0x2e, 0xcd, 
  0x2b, 0x54, 0xbe, 0xe3, 0x28, 0xe9, 0xe8, 0xba, 0x11, 0xbb, 0x23, 0xbf, 0x37, 0xbe, 0xe8, 0x01, 
  0x3f, 0x81, 0xdf, 0x33, 0xfd, 0xf0, 0x53, 0x37, 0xd2, 0xb1, 0xd8, 0x3a, 0x37, 0x0c, 0xee, 0x02, 
  0x0c, 0x49, 0xe1, 0x52, 0xd7, 0x21, 0xd9, 0x51, 0xb7, 0x0d, 0x4e, 0x0b, 0xcc, 0xfb, 0x1a, 0xfc, 
  0x49, 0xe9, 0x17, 0xe2, 0xe1, 0xef, 0x7f, 0xe7, 0xd2, 0x2d, 0xd7, 0x39, 0xff, 0x1f, 0xdc, 0xfe, 
  0xde, 0x1d, 0xe1, 0xed, 0xe8, 0xf8, 0x01, 0xc0, 0x29, 0x06, 0x1b, 0x4c, 0x1a, 0xeb, 0x26, 0x2d, 
  0x45, 0xbd, 0x3b, 0x6b, 0x46, 0xd7, 0x12, 0x48, 0x3d, 0xea, 0x4e, 0xc1, 0xea, 0x18, 0xe0, 0x42, 
  0x21, 0xbf, 0xb9, 0x2a, 0xd1, 0x1e, 0x44, 0xef, 0x13, 0xf1, 0xeb, 0x32, 0x3f, 0xc9, 0x0d, 0x40, 
  0xf5, 0xfc, 0x7e, 0x3c, 0x4a, 0x25, 0xfd, 0x3d, 0xdd, 0x0e, 0xbf, 0xce, 0xca, 0xb8, 0x3a, 0xcc, 
  0x37, 0x44, 0x5f, 0x3b, 0x06, 0xd4, 0x31, 0x4d, 0x3e, 0x26, 0xf1, 0xd7, 0x1d, 0xff, 0xb7, 0x1b, 
  0x19, 0x0f, 0x2b, 0x35, 0x1e, 0xea, 0xd4, 0x1e, 0x0a, 0x0f, 0x0c, 0x2b, 0x24, 0x03, 0x2c, 0xf1, 
  0xe6, 0x1d, 0x81, 0x48, 0x95, 0xa5, 0xda, 0xdf, 0x44, 0x37, 0xdf, 0x41, 0x3e, 0xc5, 0xe3, 0x30, 
  0x02, 0x4e, 0x34, 0xbc, 0xcc, 0x45, 0x25, 0x0e, 0x34, 0x01, 0xcc, 0x29, 0xf6, 0xeb, 0x09, 0xe6, 
  0x50, 0x90, 0xd9, 0x0a, 0xd3, 0x0f, 0xc7, 0xdf, 0x5d, 0x02, 0x06, 0xe2, 0xdd, 0xdb, 0x23, 0xa1, 
  0x5e, 0xbc, 0x8e, 0xb9, 0x0f, 0x1f, 0x1f, 0xcf, 0xd3, 0xc3, 0x2b, 0x21, 0xb1, 0x33, 0x0a, 0x1e, 
  0x06, 0xc6, 0x3c, 0x42, 0xea, 0x42, 0xe4, 0x47, 0xe3, 0x18, 0x18, 0xc5, 0x02, 0xe8, 0xbd, 0x1a, 
  0xde, 0x0a, 0x1a, 0xdd, 0xcf, 0xd7, 0x05, 0x19, 0x04, 0x39, 0xd3, 0x4a, 0xcb, 0xd4, 0xc3, 0x67, 
  0x06, 0x5b, 0x11, 0x17, 0x14, 0xbb, 0xc5, 0xbc, 0x15, 0xd8, 0xe7, 0xaf, 0xd8, 0x23, 0x4a, 0xa7, 
  0x47, 0xd8, 0xc9, 0x0b, 0x0f, 0x15, 0x06, 0x22, 0x0c, 0x0d, 0xee, 0xe0, 0x9b, 0xf1, 0x1f, 0x45, 
  0xca, 0xfb, 0xff, 0xff, 0x04, 0x00, 0x00, 0x00, 0x00, 0x01, 0x00, 0x00, 0xff, 0x49, 0xb8, 0xbc, 
  0x50, 0xf5, 0xa2, 0xbd, 0xd8, 0x8d, 0x1c, 0xbe, 0xea, 0x00, 0xdc, 0xbd, 0xaa, 0xe9, 0x27, 0xbc, 
  0x91, 0x30, 0xe6, 0x3d, 0x3e, 0x25, 0xf7, 0x3d, 0xae, 0x79, 0x37, 0xbc, 0x8e, 0x72, 0x4e, 0x3e, 
  0xd4, 0x83, 0xce, 0x3d, 0x95, 0x80, 0x83, 0x3d, 0x83, 0x71, 0x08, 0x3e, 0x0f, 0x2a, 0x3f, 0xbc, 
  0x90, 0x63, 0x6e, 0xbe, 0xa6, 0x99, 0x3c, 0x3d, 0x7e, 0xd1, 0x39, 0xbe, 0x1a, 0xc9, 0xfc, 0xbd, 
  0xb5, 0x00, 0x17, 0xbe, 0x94, 0xc8, 0x14, 0x3e, 0x08, 0xba, 0xbc, 0x3d, 0x4b, 0xb1, 0x55, 0x3b, 
  0xc6, 0xf6, 0x52, 0x3d, 0xfd, 0x2b, 0x15, 0xbe, 0x40, 0x18, 0xf2, 0xbb, 0xa2, 0xc9, 0x06, 0xbe, 
  0x35, 0x67, 0x03, 0x3d, 0x3b, 0x84, 0x1e, 0x3e, 0x18, 0x94, 0x0f, 0x3e, 0x6b, 0xc4, 0x13, 0x3e, 
  0x6f, 0xe7, 0xf1, 0x3c, 0x2b, 0xa4, 0x89, 0x3e, 0x5a, 0x41, 0xba, 0xbc, 0x0d, 0x35, 0x85, 0xbe, 
  0x5e, 0xcc, 0x67, 0x3e, 0x17, 0xe9, 0xb8, 0x3d, 0x5e, 0x9f, 0x19, 0x3e, 0x2b, 0x4a, 0x06, 0x3e, 
  0x2b, 0x26, 0x0a, 0x3e, 0x9b, 0xa9, 0x13, 0x3e, 0xa2, 0x46, 0x18, 0xbd, 0x8f, 0xcc, 0xae, 0x3d, 
  0x1e, 0xb3, 0x94, 0x3d, 0xb4, 0x2f, 0x49, 0x3d, 0x2c, 0x3d, 0x81, 0xbe, 0xad, 0x41, 0xba, 0xbd, 
  0xc4, 0xfc, 0x16, 0xbe, 0x84, 0xa8, 0x98, 0x3e, 0x6b, 0x5c, 0x8a, 0x3d, 0xf7, 0x45, 0x6a, 0x3e, 
  0x0e, 0x4f, 0xa5, 0xbd, 0x45, 0xd6, 0x04, 0x3e, 0xc1, 0xbe, 0x5e, 0xbe, 0x7c, 0x53, 0x0a, 0x3e, 
  0x37, 0x1b, 0x8b, 0x3d, 0xeb, 0xff, 0x3e, 0xbb, 0xc6, 0xb2, 0x4d, 0xba, 0x81, 0xff, 0x60, 0x3e, 
  0x79, 0x81, 0xf3, 0x3d, 0xac, 0x8e, 0xee, 0x3d, 0x51, 0xcf, 0x5d, 0xbe, 0xd3, 0xcd, 0x63, 0x3e, 
  0x8f, 0xa9, 0xe3, 0xbc, 0xbe, 0x5c, 0x8f, 0xbd, 0xeb, 0x2e, 0x0b, 0x3d, 0xd6, 0xfc, 0xff, 0xff, 
  0x04, 0x00, 0x00, 0x00, 0x04, 0x00, 0x00, 0x00, 0xfb, 0x08, 0x86, 0xbd, 0xe6, 0xfc, 0xff, 0xff, 
  0x04, 0x00, 0x00, 0x00, 0x00, 0x01, 0x00, 0x00, 0x8a, 0x01, 0xc1, 0x3c, 0xe4, 0xc1, 0x4c, 0xbb, 
  0x00, 0x10, 0x13, 0xbd, 0x51, 0x18, 0x88, 0x3d, 0x1f, 0xaa, 0xd6, 0x3c, 0xde, 0xf8, 0x22, 0xbd, 
  0xda, 0xcc, 0xfe, 0x3c, 0x85, 0x5a, 0x22, 0xbd, 0x62, 0x20, 0x36, 0xbe, 0xc1, 0xb3, 0x03, 0xbe, 
  0x78, 0xc8, 0x0b, 0xbe, 0x5f, 0x55, 0xdb, 0xbc, 0xfb, 0x3a, 0x2b, 0x3d, 0xa4, 0x9e, 0x6c, 0x3d, 
  0xd6, 0x87, 0x1d, 0xbd, 0xd1, 0x0c, 0x78, 0x3d, 0xb1, 0xe6, 0x6c, 0x3d, 0xb7, 0xcf, 0x3b, 0xbd, 
  0x27, 0x0f, 0x6c, 0x3d, 0x26, 0xa6, 0x9f, 0xbd, 0xa9, 0x78, 0x06, 0xbe, 0x0d, 0x9e, 0xf6, 0xbd, 
  0xd6, 0x6e, 0x89, 0x3d, 0x6a, 0x51, 0xda, 0x3c, 0x78, 0x7a, 0x9e, 0x3d, 0xa8, 0xdc, 0x10, 0xbe, 
  0x63, 0xcc, 0x84, 0xbd, 0x36, 0xb6, 0xd2, 0xbd, 0x69, 0xc3, 0x81, 0xbd, 0xfe, 0x6f, 0xf6, 0x3c, 
  0x37, 0x75, 0x80, 0xbc, 0x91, 0xe9, 0xaf, 0x3c, 0xce, 0x8a, 0x86, 0x3d, 0x8c, 0x4e, 0xbe, 0xbd, 
  0xa4, 0x3e, 0xb2, 0xbd, 0xb3, 0x7c, 0x24, 0x3d, 0x6b, 0x44, 0xd8, 0x3b, 0xc7, 0x81, 0xcc, 0xbd, 
  0xca, 0x70, 0x82, 0x3d, 0x5b, 0x5a, 0x9d, 0x3c, 0xae, 0x16, 0x72, 0x3c, 0x42, 0xc9, 0x4c, 0xbc, 
  0x80, 0xd2, 0xc2, 0xbc, 0xde, 0xe8, 0x98, 0xbc, 0x32, 0x5d, 0x51, 0x3d, 0x78, 0x3d, 0x11, 0x3d, 
  0xd2, 0x76, 0x8d, 0x3d, 0xd5, 0x8e, 0x9d, 0xbc, 0x64, 0xe9, 0x40, 0xbe, 0x0c, 0x96, 0xcc, 0xbc, 
  0x55, 0xd0, 0x64, 0xbd, 0xda, 0x12, 0x4e, 0x3d, 0x41, 0xb2, 0x09, 0xbe, 0x24, 0x3f, 0x88, 0xbc, 
  0x69, 0x2c, 0xa6, 0xbd, 0x9e, 0xdc, 0xf4, 0xbc, 0x4b, 0xe3, 0x52, 0x3c, 0x09, 0xbb, 0xc3, 0xbd, 
  0x20, 0xfa, 0xf3, 0x3c, 0xbf, 0xd2, 0x64, 0x3d, 0x2b, 0x11, 0xf3, 0xbd, 0x1a, 0xf9, 0x89, 0x3c, 
  0x80, 0x14, 0x6b, 0x3d, 0xe7, 0x1a, 0x42, 0x3d, 0xf2, 0xfd, 0xff, 0xff, 0x04, 0x00, 0x00, 0x00, 
  0x00, 0x02, 0x00, 0x00, 0x43, 0x02, 0x54, 0xbd, 0x02, 0x3e, 0xa7, 0xbd, 0xcd, 0x0f, 0x7f, 0xbd, 
  0x13, 0x8a, 0xbe, 0xbd, 0x31, 0x86, 0xde, 0xbd, 0x09, 0x2b, 0x74, 0xbd, 0x2d, 0x7d, 0x1a, 0xbe, 
  0xbd, 0xaa, 0xc8, 0xbd, 0x46, 0x72, 0x02, 0xbd, 0x0d, 0xfc, 0x4d, 0x3d, 0x61, 0xde, 0x07, 0xbe, 
  0x2a, 0x79, 0x76, 0xbd, 0x82, 0xc4, 0x9f, 0xbd, 0xd3, 0x0f, 0xf9, 0xbd, 0x1d, 0xc5, 0x7a, 0x3d, 
  0xad, 0x23, 0x1c, 0xbd, 0xaf, 0xff, 0xea, 0xbc, 0xa3, 0x1d, 0x96, 0xbb, 0x48, 0xf6, 0x26, 0x3d, 
  0xeb, 0xc6, 0x52, 0xbd, 0xe0, 0xa8, 0x19, 0x3d, 0x5f, 0x04, 0x34, 0xbc, 0x8a, 0xd3, 0xd2, 0xbc, 
  0xdf, 0x7e, 0x2b, 0xbd, 0x55, 0xae, 0xb1, 0xbc, 0x96, 0x59, 0x56, 0xbd, 0x2a, 0xc2, 0x99, 0x3d, 
  0xf0, 0x74, 0x33, 0xbd, 0xf9, 0x3a, 0x93, 0xbd, 0xfd, 0xe9, 0x72, 0xbd, 0xc7, 0xdf, 0x4c, 0xbe, 
  0x92, 0x36, 0xa9, 0x3b, 0xa6, 0x30, 0xd1, 0xbc, 0x4f, 0x3b, 0xd9, 0xbb, 0x0d, 0x30, 0x14, 0x3d, 
  0xc1, 0x8b, 0x4a, 0x3e, 0xa4, 0xd1, 0xa0, 0xbd, 0x83, 0x85, 0x20, 0xbe, 0x3a, 0xee, 0x04, 0x3d, 
  0x5d, 0xfd, 0xc2, 0xbc, 0xee, 0xee, 0x63, 0x3e, 0xc6, 0xbd, 0x01, 0x3d, 0xa2, 0xa2, 0x8a, 0x3d, 
  0x13, 0x47, 0x90, 0xbc, 0x5e, 0x3f, 0x87, 0xbd, 0xea, 0xf6, 0xe4, 0xbc, 0xb0, 0x41, 0x16, 0x3a, 
  0xaf, 0x91, 0x5c, 0x3b, 0x1b, 0xe6, 0x9f, 0x3d, 0x7e, 0x27, 0xa2, 0x3c, 0xfe, 0x89, 0xdd, 0xbd, 
  0x45, 0x8f, 0x0f, 0xbe, 0x75, 0xef, 0x8e, 0xbd, 0xc3, 0x87, 0x8e, 0x3d, 0x9e, 0x5c, 0x43, 0xbd, 
  0xf3, 0x09, 0x8c, 0xbd, 0xc8, 0x93, 0xff, 0xbd, 0x9e, 0xe0, 0xd5, 0xbd, 0x3c, 0x66, 0x2e, 0xbc, 
  0xbd, 0xda, 0x01, 0xbe, 0xa3, 0x18, 0x32, 0x3d, 0xf2, 0x69, 0xe7, 0x3c, 0x59, 0x72, 0xad, 0xbd, 
  0x59, 0x76, 0x9b, 0xba, 0xd2, 0xb3, 0xa9, 0x3b, 0x70, 0xc0, 0xfc, 0x3c, 0x4c, 0x14, 0xa9, 0xbd, 
  0x01, 0xeb, 0xa3, 0x3d, 0x76, 0xc7, 0x01, 0xbe, 0x9b, 0x71, 0xf7, 0x3c, 0x25, 0xab, 0xe0, 0x3b, 
  0x92, 0x25, 0xfe, 0xbd, 0xa5, 0xf6, 0xc2, 0xbc, 0x69, 0x5b, 0xba, 0x3c, 0x69, 0xe9, 0x65, 0xbd, 
  0x0c, 0x12, 0x16, 0xbe, 0xf6, 0x11, 0x7c, 0xbd, 0x7c, 0x28, 0x45, 0xbd, 0xf9, 0x91, 0xe7, 0xbd, 
  0xdb, 0x53, 0xbc, 0xbc, 0x95, 0x81, 0x3c, 0xbd, 0x01, 0x24, 0x0c, 0xbe, 0x5d, 0xef, 0x58, 0x3e, 
  0x88, 0xa4, 0xfa, 0xbb, 0x21, 0xc4, 0xa1, 0x3d, 0xdc, 0x29, 0x83, 0xbd, 0x3b, 0xf7, 0xe4, 0xbc, 
  0x89, 0x0b, 0x86, 0xbe, 0x2f, 0x4e, 0x70, 0xbd, 0x0f, 0xaa, 0x3f, 0x3c, 0xd3, 0x53, 0xd5, 0xbd, 
  0xef, 0xf8, 0x97, 0xbd, 0x1d, 0xf5, 0xe9, 0x3d, 0x19, 0x53, 0x17, 0xbd, 0x4e, 0xa6, 0x24, 0xbe, 
  0xcf, 0xf1, 0x3b, 0xbe, 0x03, 0x94, 0x14, 0x3d, 0xb1, 0x75, 0xb3, 0x3c, 0xa1, 0xea, 0xe2, 0xbd, 
  0x07, 0xe7, 0x65, 0x3c, 0x06, 0x7c, 0xb7, 0xbd, 0xe7, 0x4e, 0x90, 0xbd, 0x31, 0x11, 0xef, 0x3b, 
  0x34, 0xc0, 0x28, 0xbe, 0x6b, 0xcc, 0xeb, 0x3d, 0x15, 0xf7, 0xf9, 0xbd, 0xa0, 0x33, 0x5b, 0xbd, 
  0x10, 0xca, 0xb5, 0xbd, 0xcb, 0xe5, 0xa3, 0xbd, 0xb4, 0x21, 0xd0, 0xbd, 0x0b, 0x5a, 0x92, 0xbd, 
  0xeb, 0x14, 0x56, 0xbd, 0x1d, 0xe3, 0x79, 0xbd, 0xfa, 0xd0, 0xc2, 0x3d, 0xab, 0x9f, 0xf8, 0xbd, 
  0x0d, 0x15, 0x0f, 0x3c, 0x48, 0x4c, 0x75, 0xbd, 0x98, 0xcc, 0x96, 0xbc, 0x6a, 0x35, 0x8d, 0xbd, 
  0x62, 0xd7, 0x4f, 0xbd, 0x6e, 0x71, 0x1a, 0xbe, 0x9d, 0xd4, 0xa5, 0xbd, 0x91, 0xde, 0x9e, 0xbd, 
  0x85, 0x73, 0x1a, 0x3d, 0x22, 0x3c, 0x6b, 0x3d, 0x84, 0x06, 0x1d, 0xbe, 0x3b, 0x0b, 0x25, 0x3d, 
  0xf3, 0x1f, 0x2c, 0xbe, 0x00, 0x00, 0x06, 0x00, 0x08, 0x00, 0x04, 0x00, 0x06, 0x00, 0x00, 0x00, 
  0x04, 0x00, 0x00, 0x00, 0x00, 0x0a, 0x00, 0x00, 0xc6, 0x4e, 0x9e, 0xbd, 0x24, 0xba, 0x7e, 0x3d, 
  0xe6, 0xfa, 0x85, 0xbc, 0x13, 0x3d, 0x3a, 0x3d, 0x1e, 0x72, 0x95, 0xbd, 0x85, 0x16, 0x02, 0x3e, 
  0x8d, 0x38, 0x0f, 0xbe, 0x79, 0x3d, 0x83, 0xbc, 0xd4, 0x70, 0x2b, 0x3e, 0x68, 0x2b, 0x9d, 0xbd, 
  0x22, 0xdb, 0x5d, 0xbe, 0xe9, 0x4d, 0x74, 0xbc, 0x95, 0xca, 0x03, 0x3e, 0xfe, 0xe1, 0x03, 0x3c, 
  0xf8, 0x64, 0xd1, 0xbc, 0xce, 0x5a, 0x65, 0xbe, 0x22, 0x8d, 0xa5, 0x3c, 0x3c, 0xc1, 0x9d, 0x3b, 
  0x6b, 0x00, 0xf1, 0x3d, 0xed, 0xa5, 0x9a, 0x3d, 0x8e, 0x15, 0x04, 0x3e, 0x49, 0xe0, 0x87, 0x3b, 
  0xc6, 0xc2, 0x10, 0xbd, 0xfb, 0x86, 0xec, 0xbd, 0x55, 0xca, 0x82, 0x3d, 0x62, 0x79, 0x28, 0x3e, 
  0xae, 0xa8, 0xdf, 0xbd, 0x53, 0x99, 0x08, 0x3e, 0x96, 0x69, 0x10, 0xbe, 0xe7, 0xdb, 0xad, 0xbd, 
  0x31, 0xd3, 0x37, 0xbe, 0x0a, 0x11, 0x67, 0xbd, 0xa6, 0x4d, 0x57, 0x3d, 0x51, 0x52, 0x5c, 0x3d, 
  0x1b, 0x30, 0x59, 0xbd, 0x2a, 0x1d, 0x94, 0x3c, 0x9a, 0xe1, 0x65, 0xbd, 0xa6, 0xbc, 0x59, 0x3d, 
  0x23, 0x57, 0x63, 0xbd, 0x0f, 0x10, 0xc1, 0x3c, 0xd5, 0x2c, 0x90, 0x3e, 0x9a, 0x00, 0x71, 0x3a, 
  0xc9, 0x6d, 0xad, 0x3d, 0xfa, 0xe2, 0x98, 0x3d, 0x1e, 0x10, 0x2a, 0x3e, 0x22, 0xcd, 0xdb, 0x3c, 
  0xdc, 0x57, 0xdd, 0xb9, 0x1b, 0x59, 0xf2, 0xbd, 0xbe, 0xe0, 0x4f, 0xbe, 0xaf, 0x95, 0x11, 0xbd, 
  0x93, 0x78, 0xfc, 0x3d, 0xa4, 0x5e, 0x9b, 0x3c, 0x40, 0xab, 0x7c, 0xbd, 0xdd, 0xed, 0x19, 0x3d, 
  0x8e, 0x6f, 0x22, 0xbd, 0x2d, 0x4c, 0x77, 0x3e, 0x5d, 0xa1, 0xe2, 0xbd, 0xb4, 0x81, 0xb7, 0x3d, 
  0x2d, 0x55, 0x3a, 0x3e, 0x2a, 0x63, 0x1f, 0xbd, 0xcb, 0xf6, 0x99, 0x3e, 0x14, 0x18, 0x9e, 0x3c, 
  0xb8, 0x46, 0x65, 0xbc, 0xa1, 0xa1, 0x9e, 0x3d, 0x56, 0x40, 0xda, 0x3c, 0xe1, 0x5f, 0x4f, 0x3d, 
  0x19, 0x13, 0xb2, 0xbb, 0xbe, 0x4f, 0xbe, 0x3d, 0xe8, 0x2e, 0x20, 0x3e, 0x2a, 0x02, 0x65, 0x3d, 
  0xeb, 0x11, 0x3c, 0x3e, 0x9a, 0x3a, 0xfd, 0xbc, 0x61, 0xdf, 0xdf, 0x3d, 0x5a, 0x18, 0x8d, 0x3d, 
  0xb3, 0x1d, 0x07, 0xbe, 0x2f, 0x55, 0xc4, 0x3d, 0xf5, 0x9f, 0xf2, 0xbb, 0x88, 0x8e, 0xb6, 0xbc, 
  0xa4, 0x4b, 0xa4, 0x3d, 0xb0, 0xcd, 0xed, 0xbc, 0x6a, 0x3d, 0xbd, 0x3d, 0x54, 0x00, 0x2f, 0xbc, 
  0xe1, 0x44, 0xea, 0x3d, 0x4d, 0x85, 0x24, 0x3e, 0x86, 0x8b, 0xc3, 0x3c, 0x35, 0xb3, 0x61, 0xbe, 
  0xb2, 0x09, 0xa9, 0x3d, 0xd9, 0xf7, 0xf5, 0x3c, 0x0a, 0x57, 0x3a, 0x3e, 0x23, 0x70, 0x45, 0x3e, 
  0x65, 0x4b, 0xe1, 0x3d, 0xc6, 0x67, 0x4a, 0x3d, 0x9b, 0xf9, 0x8e, 0xbd, 0x4f, 0x3b, 0xb6, 0xbc, 
  0xf2, 0x80, 0x67, 0xbc, 0xc1, 0xcd, 0x2a, 0x3e, 0x3f, 0xe9, 0xa6, 0x3d, 0xf8, 0x34, 0xc0, 0xbb, 
  0xd0, 0x4f, 0x26, 0x3e, 0x83, 0xd4, 0x06, 0xbe, 0x86, 0xd9, 0x55, 0x3e, 0xba, 0x2d, 0xc0, 0xbc, 
  0xc2, 0x26, 0x9f, 0xbb, 0x3d, 0x75, 0xad, 0xbd, 0x49, 0xcc, 0xea, 0xbc, 0x16, 0x71, 0x31, 0x3e, 
  0x55, 0x8b, 0xc1, 0xbc, 0x48, 0xa9, 0x79, 0x3d, 0x58, 0x12, 0xae, 0xbd, 0x05, 0x07, 0xe7, 0x3d, 
  0x15, 0xab, 0xf4, 0xbd, 0x9c, 0xb0, 0xca, 0x3c, 0xf5, 0x5c, 0xdc, 0x3c, 0x12, 0xfb, 0x34, 0xbe, 
  0xfb, 0x85, 0x2a, 0x3e, 0x2f, 0x8b, 0xe0, 0xbe, 0xf3, 0xbe, 0x09, 0xbe, 0xff, 0xdf, 0x00, 0xbe, 
  0xc9, 0xd3, 0x52, 0x3e, 0x62, 0x13, 0xcf, 0xbd, 0x2b, 0x71, 0x77, 0xbd, 0x8c, 0x22, 0x8a, 0x3d, 
  0x86, 0x54, 0x61, 0xbd, 0x6c, 0x5a, 0xcd, 0x3c, 0x75, 0xe3, 0xd3, 0xbd, 0x25, 0x46, 0xeb, 0xbd, 
  0x34, 0x17, 0xd4, 0x3d, 0x22, 0xd9, 0x6e, 0x3d, 0x54, 0x71, 0x1f, 0x3e, 0x78, 0xbe, 0x8a, 0x3d, 
  0x8b, 0x84, 0x2a, 0x3e, 0xd5, 0xb2, 0x1b, 0xbd, 0x1d, 0x8c, 0x0b, 0x3e, 0x74, 0x15, 0x7a, 0xbe, 
  0x84, 0x9d, 0x80, 0xbc, 0x43, 0xcc, 0x16, 0x3c, 0x76, 0x46, 0x0c, 0xbd, 0xc8, 0x2c, 0xcd, 0x3d, 
  0x7c, 0xf4, 0x9e, 0xbd, 0x23, 0xeb, 0x8f, 0x3d, 0xb3, 0x31, 0x7f, 0x3d, 0x7e, 0x42, 0x22, 0xbd, 
  0x6c, 0x21, 0x49, 0xbd, 0xd1, 0xf6, 0x16, 0x3e, 0x49, 0xcc, 0xa8, 0xbd, 0x82, 0x85, 0xdb, 0xbd, 
  0x4b, 0x5d, 0x8e, 0x3d, 0x9b, 0x9c, 0x0f, 0xbd, 0x74, 0xb8, 0x23, 0xbe, 0x54, 0xba, 0x15, 0x3e, 
  0xc4, 0x90, 0x01, 0xbd, 0x4c, 0x7a, 0x02, 0x3d, 0xed, 0x87, 0x7b, 0xbd, 0x4a, 0x19, 0x1d, 0xbe, 
  0xeb, 0x1d, 0x78, 0xbd, 0x3f, 0xac, 0xb5, 0x3c, 0x05, 0xd8, 0x9c, 0xbd, 0xc0, 0x43, 0x21, 0xbd, 
  0x5b, 0xb5, 0xf1, 0xbd, 0x7b, 0xa7, 0x1e, 0xbe, 0x1d, 0xaf, 0x58, 0x3e, 0xe1, 0x24, 0xe3, 0x3d, 
  0xa2, 0x00, 0x61, 0xbd, 0xfd, 0xb9, 0x1b, 0x3e, 0xb3, 0xef, 0x09, 0x3e, 0x87, 0xb9, 0x0a, 0xbe, 
  0xc3, 0xbc, 0xae, 0x3d, 0x48, 0x26, 0x42, 0x3d, 0x5f, 0x2f, 0xae, 0xbd, 0x51, 0x12, 0x66, 0x3c, 
  0xa2, 0x89, 0xb7, 0xbd, 0xf7, 0x82, 0x69, 0x3d, 0xbb, 0xec, 0x2e, 0xbd, 0xe2, 0xe9, 0xe2, 0xbd, 
  0xb4, 0x4f, 0xa4, 0x3c, 0x19, 0x6b, 0x14, 0xbe, 0xf0, 0x02, 0xfb, 0xbc, 0xfb, 0x4a, 0xcf, 0xbc, 
  0xb6, 0xec, 0x02, 0x3d, 0xe3, 0x0a, 0x2c, 0xbd, 0x7f, 0x17, 0x97, 0x3e, 0xbc, 0x04, 0x22, 0x3b, 
  0xc8, 0x48, 0x34, 0x3c, 0xa4, 0x4f, 0xd7, 0xbb, 0x30, 0x34, 0xbd, 0x3d, 0x7f, 0xd7, 0x33, 0xbe, 
  0x2e, 0x6a, 0x95, 0xbc, 0x2d, 0x29, 0xf3, 0x3d, 0x28, 0x66, 0x98, 0x3d, 0xe5, 0x5b, 0xe8, 0x3c, 
  0x8d, 0x78, 0xaa, 0xbd, 0x62, 0x43, 0xdf, 0xbd, 0xe2, 0x71, 0x19, 0x3e, 0x44, 0xa5, 0x14, 0xbe, 
  0xd6, 0x01, 0x0c, 0xbe, 0x50, 0x84, 0x2f, 0xbe, 0x3e, 0x7e, 0x9c, 0xbd, 0xcc, 0xa5, 0xad, 0xbd, 
  0x9d, 0x91, 0x31, 0x3e, 0x10, 0x46, 0x83, 0xbc, 0x7d, 0x14, 0x6c, 0xbe, 0xe4, 0x9d, 0xfd, 0xba, 
  0x36, 0x9c, 0xe6, 0xbd, 0x0c, 0x1a, 0x96, 0x3c, 0x63, 0x78, 0x0b, 0x3e, 0x23, 0xd9, 0xac, 0xbe, 
  0x9a, 0xcd, 0xab, 0xbd, 0xd0, 0x34, 0xdc, 0xbc, 0xd3, 0xe6, 0x11, 0x3e, 0x1b, 0x27, 0xd5, 0xbd, 
  0x46, 0x84, 0x1b, 0xbe, 0x14, 0xa7, 0xde, 0x3c, 0xaa, 0x3e, 0x3b, 0x3d, 0x1a, 0x0e, 0x7b, 0xbe, 
  0x3b, 0x7c, 0x2f, 0xbe, 0x99, 0xc7, 0x4d, 0xbe, 0x7d, 0xed, 0x95, 0xbd, 0xb0, 0xdc, 0x93, 0x3d, 
  0x88, 0x67, 0x66, 0x3e, 0xd0, 0x23, 0x03, 0x3d, 0x99, 0xf1, 0x67, 0x3d, 0xd9, 0x2c, 0x86, 0xbd, 
  0x26, 0xa6, 0xa4, 0x3d, 0x6b, 0x7a, 0xf9, 0x3d, 0xa8, 0x48, 0x15, 0xbe, 0x2b, 0x2a, 0x9f, 0xbe, 
  0xcc, 0x26, 0xc1, 0xbd, 0x38, 0x9d, 0x17, 0xbe, 0x8b, 0x41, 0xc7, 0x3c, 0x71, 0x38, 0x22, 0x3d, 
  0xab, 0xf7, 0xd9, 0xbd, 0xc6, 0xda, 0x57, 0xbc, 0x18, 0x74, 0x0a, 0x3c, 0xc6, 0xba, 0x26, 0xba, 
  0x89, 0xf9, 0x8e, 0xbc, 0x65, 0x1e, 0xbc, 0xbd, 0xca, 0x8e, 0x03, 0xbe, 0x79, 0x42, 0xb7, 0xbd, 
  0xec, 0xea, 0x83, 0xbe, 0x7c, 0x95, 0x9d, 0xbd, 0x21, 0xbd, 0x88, 0x39, 0xcf, 0x77, 0x85, 0xbd, 
  0x14, 0x4c, 0x11, 0xbe, 0xcd, 0x7f, 0x3d, 0xbe, 0x4f, 0x4f, 0x85, 0xbd, 0x9e, 0xef, 0x10, 0x3e, 
  0xaf, 0x64, 0x09, 0x3e, 0x51, 0x17, 0x01, 0x3e, 0x49, 0xe3, 0x78, 0xbe, 0x8a, 0xa6, 0xcb, 0x3c, 
  0xd9, 0xfc, 0xfb, 0x3d, 0x7a, 0xbc, 0xd9, 0x3c, 0x2d, 0x96, 0x96, 0xbd, 0x96, 0xd9, 0xe1, 0xbc, 
  0xe7, 0x91, 0x6f, 0xbc, 0x3b, 0xf5, 0x7e, 0xbc, 0xc9, 0x75, 0xb1, 0x3d, 0xd0, 0x8d, 0x55, 0x3c, 
  0x6f, 0xfb, 0x86, 0x3d, 0xc5, 0xdb, 0xb1, 0x3d, 0x60, 0x4a, 0x5d, 0xbd, 0xfa, 0x30, 0x98, 0xbd, 
  0x2d, 0x99, 0xd3, 0x3c, 0x11, 0x4b, 0x84, 0xbd, 0x84, 0x36, 0xd3, 0xbd, 0xc3, 0x91, 0x96, 0x3e, 
  0xe1, 0xa8, 0xb8, 0xbc, 0xd7, 0xbe, 0x48, 0x3b, 0xd8, 0x4f, 0x56, 0xbe, 0x5e, 0x86, 0xa7, 0x3c, 
  0xbd, 0x01, 0x21, 0x3e, 0x48, 0x66, 0x77, 0x3d, 0x5b, 0x17, 0xac, 0xbd, 0x67, 0xb2, 0x7d, 0xbd, 
  0xa8, 0xca, 0x01, 0x3e, 0x28, 0x00, 0xc6, 0x3b, 0x09, 0x97, 0x55, 0x3d, 0x6d, 0xb4, 0xed, 0x3d, 
  0x24, 0xe0, 0x11, 0x3e, 0x0c, 0x74, 0x2a, 0x3d, 0x45, 0x4a, 0x35, 0x3e, 0x39, 0x05, 0x1b, 0x3b, 
  0x77, 0x27, 0xe2, 0xbd, 0x02, 0x82, 0x87, 0xbd, 0xa6, 0x51, 0x46, 0xbd, 0x10, 0x50, 0x9e, 0xbe, 
  0xc6, 0xaa, 0xdd, 0x3d, 0x5e, 0x55, 0xbf, 0x3d, 0xbe, 0x39, 0x85, 0x3d, 0xc8, 0x0c, 0x2d, 0xbe, 
  0x09, 0xcd, 0x54, 0x3e, 0x3e, 0x2a, 0xdd, 0xbd, 0x3d, 0x3c, 0xdf, 0xbd, 0xce, 0xcb, 0xd3, 0xbd, 
  0xb0, 0xa1, 0x07, 0xbd, 0xab, 0x71, 0xaf, 0x3c, 0x5a, 0x2d, 0xb3, 0x3d, 0xee, 0x49, 0x96, 0x3d, 
  0xaf, 0x3a, 0x93, 0x3d, 0x35, 0xe1, 0x16, 0xbe, 0xc0, 0x67, 0x26, 0x3e, 0x4e, 0x45, 0x37, 0xbe, 
  0xf2, 0x6b, 0x83, 0xbd, 0xcc, 0xeb, 0x78, 0xbe, 0xf1, 0x3d, 0xd2, 0xbd, 0xbc, 0x74, 0x4e, 0x3e, 
  0xa0, 0x50, 0x7a, 0xbc, 0xf9, 0x57, 0xde, 0xbd, 0x4c, 0x4d, 0x0a, 0xbe, 0x6b, 0xaf, 0xff, 0x3d, 
  0x05, 0xb7, 0xdd, 0x3d, 0xfb, 0xb7, 0x15, 0x3d, 0xe5, 0xf2, 0x28, 0x3e, 0xdc, 0xf9, 0x82, 0x3e, 
  0x58, 0x9b, 0x3a, 0x3e, 0x43, 0xb6, 0x1b, 0x3d, 0xbd, 0x53, 0xb0, 0xbd, 0x57, 0x05, 0xde, 0x3b, 
  0x33, 0x23, 0xba, 0x3d, 0xe4, 0xbb, 0x08, 0xbe, 0x3d, 0xe6, 0x2f, 0xbe, 0x5b, 0x5f, 0xb5, 0xbd, 
  0xb5, 0x44, 0x62, 0xbd, 0x8d, 0x1e, 0x3b, 0x3e, 0x8a, 0xaf, 0x28, 0xbe, 0x6a, 0xe2, 0xc8, 0x3d, 
  0x02, 0xa4, 0x04, 0xbe, 0x0f, 0xd4, 0x0e, 0xbe, 0xca, 0x23, 0xe9, 0x3d, 0x7e, 0xd8, 0x3f, 0x3e, 
  0x67, 0xae, 0x26, 0xbe, 0x35, 0x8f, 0xd0, 0xbd, 0xc6, 0x56, 0x0c, 0x3c, 0x49, 0x04, 0x0b, 0x3e, 
  0xdd, 0x22, 0x00, 0x3d, 0x63, 0x80, 0x66, 0xbe, 0x7e, 0x82, 0xdf, 0x3d, 0xab, 0x99, 0x78, 0xbd, 
  0xd0, 0x9a, 0x32, 0x3e, 0xb8, 0xbc, 0x00, 0x3e, 0x73, 0x73, 0xd9, 0xbd, 0x26, 0x2e, 0x5f, 0xba, 
  0x0b, 0x76, 0x1a, 0x3d, 0xbf, 0x0b, 0x01, 0xbe, 0x47, 0x20, 0x12, 0xbd, 0xb6, 0x49, 0x26, 0x3e, 
  0x00, 0x45, 0x95, 0xbd, 0x19, 0xb9, 0x7c, 0xbc, 0x59, 0x77, 0xd3, 0x3d, 0x03, 0x97, 0xd3, 0xbd, 
  0x18, 0xe5, 0x26, 0xbe, 0x49, 0xe8, 0x73, 0xbc, 0x1c, 0x8a, 0x9a, 0x3c, 0x4a, 0x4b, 0x1e, 0x3e, 
  0x82, 0x2a, 0x06, 0xbe, 0xd1, 0x28, 0xed, 0x3d, 0xa2, 0x8d, 0x6e, 0xbd, 0x9c, 0x14, 0xaf, 0x3d, 
  0x09, 0x23, 0xc4, 0x3d, 0x04, 0x40, 0xba, 0xbb, 0xbb, 0x33, 0xae, 0x3d, 0xe0, 0xdf, 0x17, 0xbe, 
  0x85, 0x2c, 0xfc, 0x3d, 0xd7, 0x14, 0x0e, 0xbe, 0x86, 0x5c, 0x46, 0xbe, 0x27, 0x9b, 0x23, 0xbe, 
  0xa6, 0x58, 0xe0, 0xbd, 0x74, 0xbe, 0x24, 0x3d, 0x0a, 0xc3, 0xd0, 0xbd, 0x42, 0x47, 0xf5, 0xbd, 
  0xb2, 0xbc, 0xe5, 0xbd, 0xaa, 0x80, 0x97, 0x3d, 0x8e, 0x3b, 0xab, 0xbd, 0x28, 0x26, 0x75, 0x3e, 
  0x2b, 0x12, 0xb7, 0x3d, 0xd7, 0xb6, 0x06, 0xbe, 0xe3, 0xe6, 0xff, 0xbc, 0x43, 0xf2, 0xa2, 0x3d, 
  0x29, 0xbf, 0x10, 0x3d, 0xff, 0x36, 0x9c, 0xbd, 0xad, 0xfe, 0x4c, 0xbc, 0xbe, 0x86, 0x23, 0x3c, 
  0x5f, 0x93, 0x92, 0xbc, 0x07, 0x0b, 0x09, 0xbe, 0x9c, 0x7b, 0xde, 0x3d, 0x3f, 0x19, 0xa4, 0xbe, 
  0x95, 0xd5, 0x8e, 0x3c, 0xd1, 0x47, 0x1b, 0xbe, 0xfb, 0x36, 0xdd, 0x3d, 0x0a, 0x5d, 0x34, 0xbd, 
  0x65, 0x8d, 0xfa, 0xbd, 0xa5, 0xfe, 0x95, 0xbd, 0xb0, 0xd5, 0xca, 0x3d, 0x96, 0x46, 0x21, 0xbe, 
  0xd7, 0xb2, 0x91, 0x3d, 0xe6, 0x2d, 0x5a, 0xbe, 0xc8, 0x22, 0x00, 0xbc, 0x5a, 0x13, 0xe2, 0xbc, 
  0xc2, 0xd0, 0x1c, 0x3e, 0xab, 0x36, 0x37, 0x3e, 0x64, 0xdf, 0x35, 0xbe, 0x5e, 0x30, 0x37, 0x3d, 
  0x3b, 0xaf, 0x8f, 0xbd, 0x7a, 0x49, 0x6e, 0xbd, 0xf1, 0x86, 0xa0, 0xbd, 0x1d, 0x21, 0x76, 0xbe, 
  0xe8, 0x2c, 0x8d, 0x3d, 0x77, 0xa7, 0xc4, 0x3d, 0x40, 0xf8, 0x17, 0x3e, 0xaa, 0x03, 0x18, 0x3e, 
  0xe7, 0x0a, 0xf6, 0xbe, 0xe7, 0xc2, 0xac, 0x3d, 0xca, 0x3d, 0x6c, 0x3d, 0x9b, 0x32, 0x62, 0xbe, 
  0xa4, 0xe4, 0x07, 0x3e, 0x10, 0xac, 0xc2, 0xbd, 0x40, 0xfc, 0xbf, 0xbd, 0xd9, 0xef, 0xa6, 0x3d, 
  0x2f, 0x87, 0xa6, 0x3c, 0x1f, 0x4d, 0x88, 0x3c, 0xf6, 0xa5, 0xcc, 0xbe, 0x6d, 0xd7, 0xc1, 0x3d, 
  0x06, 0x88, 0x1f, 0x3e, 0x2f, 0xd6, 0x15, 0x3e, 0xd2, 0x45, 0x9a, 0x3c, 0xa1, 0xa7, 0x19, 0x3e, 
  0x1c, 0xa7, 0x2c, 0x3d, 0xca, 0x8b, 0xbc, 0x3c, 0xa0, 0x07, 0x6a, 0xbd, 0xd7, 0x53, 0x83, 0x3d, 
  0x25, 0xba, 0x0a, 0x3e, 0xbf, 0xae, 0x0c, 0x3e, 0xe3, 0x12, 0x81, 0x3d, 0xe6, 0x9d, 0x6f, 0x3e, 
  0x53, 0xda, 0x95, 0x3d, 0xc1, 0x37, 0x02, 0xbe, 0x7f, 0x40, 0x8c, 0x3d, 0x69, 0x23, 0x9a, 0x3d, 
  0x7e, 0xb9, 0xb6, 0x3d, 0x0b, 0xbb, 0xd3, 0x3d, 0x41, 0x38, 0xea, 0xbd, 0xbc, 0xb0, 0x05, 0x3d, 
  0x38, 0x3a, 0x0e, 0xbe, 0x2e, 0xe0, 0x59, 0x3e, 0x89, 0x3a, 0x7f, 0xbc, 0xcd, 0xc8, 0x7b, 0xbd, 
  0x49, 0xb6, 0x16, 0x3e, 0xf4, 0x7a, 0x01, 0xbe, 0x26, 0x62, 0x16, 0x3e, 0xdf, 0x21, 0x48, 0x3e, 
  0x47, 0x24, 0x06, 0x3e, 0x15, 0xb0, 0x00, 0x3d, 0x9a, 0x12, 0xb5, 0xba, 0xcd, 0x3d, 0xe2, 0x3b, 
  0xbe, 0x76, 0x1a, 0x3c, 0xa6, 0x31, 0x90, 0x3e, 0x4b, 0x81, 0x7b, 0x3c, 0x95, 0x63, 0x81, 0xbc, 
  0x0f, 0x25, 0xd7, 0x3d, 0x3a, 0x52, 0x16, 0x3c, 0xb0, 0xdf, 0x23, 0xbe, 0x97, 0xbb, 0x77, 0xbd, 
  0x5a, 0x48, 0x87, 0xbd, 0xe9, 0xe9, 0x60, 0x3d, 0x43, 0xd3, 0x37, 0xbc, 0x8f, 0xfe, 0xc7, 0x3d, 
  0x5c, 0xac, 0x4a, 0xbd, 0x93, 0xf6, 0x60, 0xba, 0x7d, 0x6c, 0x1f, 0x3e, 0x72, 0x8e, 0xed, 0x3d, 
  0xe4, 0x43, 0x3b, 0xbd, 0x17, 0x82, 0x20, 0x3d, 0x70, 0xa2, 0xea, 0xbd, 0xf4, 0xe3, 0x4c, 0x3a, 
  0x68, 0xc9, 0x61, 0x3d, 0x4d, 0x24, 0xf3, 0xbd, 0x50, 0x38, 0x83, 0x3d, 0xf3, 0x8f, 0x7d, 0xbd, 
  0xa2, 0x5a, 0x5a, 0x3e, 0xb1, 0xed, 0xa4, 0x3d, 0x27, 0xa9, 0xa6, 0xbd, 0x1f, 0xdd, 0x31, 0xbb, 
  0xb9, 0xdb, 0xf0, 0x3c, 0x2b, 0xea, 0x1a, 0xbd, 0x71, 0x0d, 0x61, 0x3c, 0x97, 0x4a, 0x13, 0xbf, 
  0x15, 0xe1, 0x83, 0x3d, 0x5f, 0x07, 0xcc, 0x3d, 0x94, 0x83, 0x1e, 0x3e, 0x6d, 0x56, 0x60, 0xbd, 
  0x50, 0x4e, 0xd1, 0x3b, 0x2a, 0x4f, 0x2c, 0xbe, 0x67, 0xaf, 0x8e, 0xbc, 0x31, 0xa9, 0x10, 0x3e, 
  0xfe, 0x90, 0x28, 0xbe, 0x51, 0x91, 0x21, 0xbe, 0xdf, 0x2b, 0x02, 0x3e, 0x3c, 0x4d, 0xcd, 0x3d, 
  0xd6, 0x78, 0x78, 0xbe, 0x32, 0xed, 0x12, 0x3e, 0x9f, 0x28, 0xda, 0xbd, 0xbc, 0x76, 0x29, 0x3d, 
  0x5b, 0x08, 0x14, 0x3d, 0xf7, 0x95, 0x6c, 0x3e, 0x50, 0x48, 0xdd, 0xbd, 0xd8, 0x71, 0x54, 0x3e, 
  0xd9, 0x7c, 0xb2, 0x3d, 0xc3, 0xc1, 0x38, 0x3a, 0x26, 0x0d, 0x91, 0x3d, 0x6e, 0x08, 0x11, 0x3e, 
  0x01, 0xeb, 0xdf, 0xbc, 0xd2, 0xc6, 0xb1, 0xbc, 0x1d, 0xaa, 0x2f, 0xbe, 0x5d, 0x7b, 0x4a, 0xbe, 
  0x00, 0x7e, 0x16, 0xbe, 0x29, 0x3a, 0xc0, 0xbc, 0xb8, 0xc4, 0x22, 0x3c, 0xd2, 0xee, 0x51, 0xbd, 
  0xd0, 0xd1, 0x89, 0x3c, 0xb0, 0x8c, 0xf7, 0xbd, 0xcc, 0xc3, 0xb5, 0x3d, 0xdb, 0xe5, 0x07, 0x3e, 
  0x51, 0x7d, 0x8a, 0xbd, 0x71, 0x1e, 0x6d, 0xbe, 0x7a, 0xa1, 0xad, 0x3d, 0xb0, 0x17, 0xab, 0xbd, 
  0xf7, 0x1d, 0xa5, 0xbd, 0x66, 0xb6, 0x34, 0xbd, 0x2b, 0x88, 0xfe, 0x3d, 0x73, 0x59, 0x8e, 0x3d, 
  0xe9, 0xcc, 0x22, 0x3e, 0x5b, 0x32, 0x7a, 0xbb, 0xe5, 0x9b, 0x6c, 0xbd, 0xa7, 0xa5, 0xc5, 0x3c, 
  0x96, 0x68, 0x84, 0x3d, 0x8f, 0xa7, 0xc4, 0x3d, 0x4d, 0x6d, 0x5e, 0xbd, 0xec, 0x8e, 0xbe, 0xbd, 
  0xd6, 0x3d, 0x16, 0x3e, 0xd6, 0xd1, 0x2d, 0xbe, 0xa4, 0xdf, 0x29, 0xbd, 0x7e, 0xd4, 0x03, 0x3e, 
  0x5c, 0xec, 0x0d, 0x3e, 0x70, 0x86, 0x2f, 0x3e, 0x0e, 0xe5, 0xdb, 0x3d, 0x65, 0xd4, 0x33, 0xbe, 
  0xec, 0xa8, 0xca, 0xbd, 0x6c, 0xb1, 0x72, 0x3d, 0x88, 0xf2, 0x81, 0xba, 0x46, 0x95, 0xaa, 0xbc, 
  0xa2, 0x74, 0x9b, 0x3d, 0x19, 0xe9, 0x6e, 0xbd, 0xb6, 0x05, 0xb2, 0x3d, 0xc6, 0xc0, 0x81, 0x3c, 
  0xd0, 0xcc, 0x1b, 0x3d, 0x2d, 0xe1, 0x72, 0xbd, 0xc6, 0x6a, 0xdf, 0xbb, 0x1b, 0x2c, 0x80, 0xbd, 
  0x81, 0x98, 0x4c, 0xbe, 0xc6, 0x92, 0xd4, 0xbc, 0x7e, 0xe7, 0x53, 0xbc, 0x75, 0x38, 0x15, 0x3d, 
  0xff, 0x05, 0xd7, 0xbd, 0xe5, 0x74, 0x35, 0x3c, 0x25, 0xad, 0xa9, 0x3d, 0x39, 0xa2, 0x02, 0xbf, 
  0x6e, 0x69, 0x00, 0xbb, 0xbb, 0x00, 0x9f, 0x3d, 0x10, 0x54, 0x29, 0x3d, 0x6c, 0x28, 0xd5, 0x3d, 
  0xa3, 0xaf, 0x8b, 0x3c, 0x07, 0x39, 0xc0, 0x3d, 0x7e, 0x04, 0x18, 0xbc, 0x51, 0xb6, 0x10, 0xbe, 
  0xff, 0xf2, 0xd7, 0x3d, 0x4d, 0x3d, 0xd9, 0xbd, 0x13, 0x78, 0x0f, 0xbd, 0xf8, 0x49, 0x62, 0xbd, 
  0xe6, 0x7c, 0x09, 0xbe, 0xab, 0x00, 0xfc, 0xbc, 0x46, 0xb1, 0x17, 0x3e, 0x05, 0xae, 0x23, 0x3e, 
  0x47, 0x44, 0xc3, 0xba, 0x44, 0x88, 0x1f, 0x3e, 0x33, 0x15, 0xfd, 0x3d, 0xff, 0xaa, 0x6c, 0x3e, 
  0x5f, 0x84, 0x29, 0x3d, 0x65, 0xb5, 0xdc, 0x3d, 0x51, 0xbe, 0x66, 0x3e, 0x0c, 0xc9, 0x1f, 0x3e, 
  0x73, 0x63, 0x4f, 0x3e, 0xed, 0x4d, 0x21, 0x3d, 0x0b, 0xef, 0x0b, 0x3d, 0x55, 0xf3, 0x89, 0xbd, 
  0x03, 0x62, 0x59, 0x3e, 0xc8, 0xa4, 0x5b, 0xbe, 0xb9, 0x16, 0x0e, 0xbc, 0x87, 0x68, 0x41, 0x3d, 
  0x83, 0x71, 0x97, 0x3a, 0xc7, 0x5d, 0xd9, 0xbc, 0xda, 0xd2, 0x54, 0xbc, 0x2d, 0x20, 0xbc, 0xbc, 
  0xbd, 0x53, 0x17, 0xbd, 0x6e, 0x89, 0x17, 0xbd, 0x82, 0x33, 0x9d, 0xbd, 0x74, 0xe4, 0xe8, 0xbd, 
  0x57, 0xdd, 0xc1, 0x3c, 0x58, 0x5f, 0xe7, 0xbb, 0x94, 0xa3, 0x6b, 0x3e, 0x10, 0x00, 0xb1, 0xbc, 
  0x97, 0xd8, 0x5d, 0x3d, 0x12, 0x54, 0x3b, 0x3d, 0x46, 0x6d, 0x7f, 0xbd, 0x77, 0x89, 0x66, 0x3d, 
  0x0c, 0x3f, 0xa4, 0xbc, 0xbf, 0xb6, 0x70, 0xbe, 0x2a, 0xbf, 0x91, 0x3d, 0x69, 0xad, 0x44, 0xbc, 
  0x93, 0x00, 0xd6, 0xbd, 0x87, 0x22, 0xbe, 0xba, 0xa1, 0xba, 0x23, 0xbe, 0x5a, 0x41, 0x8b, 0x3b, 
  0x58, 0x02, 0x67, 0x3d, 0x5b, 0x6e, 0x3c, 0xbc, 0xd4, 0xa0, 0x0c, 0xbe, 0x19, 0x0f, 0xd0, 0x3d, 
  0x4f, 0x23, 0x02, 0x3d, 0x15, 0x53, 0x07, 0x3c, 0x64, 0xaf, 0x39, 0xbe, 0x44, 0x2d, 0x1a, 0x3e, 
  0xcc, 0x15, 0x32, 0xbb, 0x12, 0xd2, 0xfb, 0x3c, 0x95, 0x01, 0x41, 0xbc, 0x1c, 0x9d, 0x25, 0xbe, 
  0xdf, 0x94, 0x09, 0x3e, 0x08, 0xb8, 0x16, 0xbe, 0x28, 0x60, 0x93, 0xbd, 0x1f, 0x8f, 0xc6, 0xbd, 
  0xdc, 0x14, 0x0f, 0x3e, 0x7e, 0xf2, 0xbd, 0xbd, 0x14, 0xf8, 0xff, 0xff, 0x18, 0xf8, 0xff, 0xff, 
  0x0f, 0x00, 0x00, 0x00, 0x4d, 0x4c, 0x49, 0x52, 0x20, 0x43, 0x6f, 0x6e, 0x76, 0x65, 0x72, 0x74, 
  0x65, 0x64, 0x2e, 0x00, 0x01, 0x00, 0x00, 0x00, 0x14, 0x00, 0x00, 0x00, 0x00, 0x00, 0x0e, 0x00, 
  0x18, 0x00, 0x14, 0x00, 0x10, 0x00, 0x0c, 0x00, 0x08, 0x00, 0x04, 0x00, 0x0e, 0x00, 0x00, 0x00, 
  0x14, 0x00, 0x00, 0x00, 0x1c, 0x00, 0x00, 0x00, 0xe4, 0x00, 0x00, 0x00, 0xe8, 0x00, 0x00, 0x00, 
  0xec, 0x00, 0x00, 0x00, 0x04, 0x00, 0x00, 0x00, 0x6d, 0x61, 0x69, 0x6e, 0x00, 0x00, 0x00, 0x00, 
  0x03, 0x00, 0x00, 0x00, 0x8c, 0x00, 0x00, 0x00, 0x38, 0x00, 0x00, 0x00, 0x04, 0x00, 0x00, 0x00, 
  0x8e, 0xff, 0xff, 0xff, 0x10, 0x00, 0x00, 0x00, 0x00, 0x00, 0x00, 0x08, 0x0c, 0x00, 0x00, 0x00, 
  0x10, 0x00, 0x00, 0x00, 0x90, 0xf8, 0xff, 0xff, 0x01, 0x00, 0x00, 0x00, 0x09, 0x00, 0x00, 0x00, 
  0x03, 0x00, 0x00, 0x00, 0x08, 0x00, 0x00, 0x00, 0x05, 0x00, 0x00, 0x00, 0x04, 0x00, 0x00, 0x00, 
  0xbe, 0xff, 0xff, 0xff, 0x1c, 0x00, 0x00, 0x00, 0x00, 0x00, 0x00, 0x08, 0x1c, 0x00, 0x00, 0x00, 
  0x20, 0x00, 0x00, 0x00, 0x0c, 0x00, 0x08, 0x00, 0x07, 0x00, 0x00, 0x00, 0x00, 0x00, 0x06, 0x00, 
  0x0c, 0x00, 0x00, 0x00, 0x00, 0x00, 0x01, 0x01, 0x01, 0x00, 0x00, 0x00, 0x08, 0x00, 0x00, 0x00, 
  0x03, 0x00, 0x00, 0x00, 0x07, 0x00, 0x00, 0x00, 0x06, 0x00, 0x00, 0x00, 0x03, 0x00, 0x00, 0x00, 
  0x00, 0x00, 0x0e, 0x00, 0x16, 0x00, 0x00, 0x00, 0x10, 0x00, 0x0c, 0x00, 0x0b, 0x00, 0x04, 0x00, 
  0x0e, 0x00, 0x00, 0x00, 0x18, 0x00, 0x00, 0x00, 0x00, 0x00, 0x00, 0x08, 0x18, 0x00, 0x00, 0x00, 
  0x1c, 0x00, 0x00, 0x00, 0x00, 0x00, 0x06, 0x00, 0x08, 0x00, 0x07, 0x00, 0x06, 0x00, 0x00, 0x00, 
  0x00, 0x00, 0x00, 0x01, 0x01, 0x00, 0x00, 0x00, 0x07, 0x00, 0x00, 0x00, 0x03, 0x00, 0x00, 0x00, 
  0x00, 0x00, 0x00, 0x00, 0x01, 0x00, 0x00, 0x00, 0x02, 0x00, 0x00, 0x00, 0x01, 0x00, 0x00, 0x00, 
  0x09, 0x00, 0x00, 0x00, 0x01, 0x00, 0x00, 0x00, 0x00, 0x00, 0x00, 0x00, 0x0a, 0x00, 0x00, 0x00, 
  0x8c, 0x06, 0x00, 0x00, 0x34, 0x06, 0x00, 0x00, 0xe0, 0x05, 0x00, 0x00, 0xa4, 0x05, 0x00, 0x00, 
  0x68, 0x05, 0x00, 0x00, 0x28, 0x05, 0x00, 0x00, 0xc0, 0x01, 0x00, 0x00, 0x04, 0x01, 0x00, 0x00, 
  0x60, 0x00, 0x00, 0x00, 0x04, 0x00, 0x00, 0x00, 0xb2, 0xf9, 0xff, 0xff, 0x00, 0x00, 0x00, 0x01, 
  0x14, 0x00, 0x00, 0x00, 0x1c, 0x00, 0x00, 0x00, 0x1c, 0x00, 0x00, 0x00, 0x0a, 0x00, 0x00, 0x00, 
  0x34, 0x00, 0x00, 0x00, 0x02, 0x00, 0x00, 0x00, 0xff, 0xff, 0xff, 0xff, 0x01, 0x00, 0x00, 0x00, 
  0x9c, 0xf9, 0xff, 0xff, 0x1b, 0x00, 0x00, 0x00, 0x53, 0x74, 0x61, 0x74, 0x65, 0x66, 0x75, 0x6c, 
  0x50, 0x61, 0x72, 0x74, 0x69, 0x74, 0x69, 0x6f, 0x6e, 0x65, 0x64, 0x43, 0x61, 0x6c, 0x6c, 0x5f, 
  0x31, 0x3a, 0x30, 0x00, 0x02, 0x00, 0x00, 0x00, 0x01, 0x00, 0x00, 0x00, 0x01, 0x00, 0x00, 0x00, 
  0x0a, 0xfa, 0xff, 0xff, 0x00, 0x00, 0x00, 0x01, 0x14, 0x00, 0x00, 0x00, 0x1c, 0x00, 0x00, 0x00, 
  0x1c, 0x00, 0x00, 0x00, 0x09, 0x00, 0x00, 0x00, 0x7c, 0x00, 0x00, 0x00, 0x02, 0x00, 0x00, 0x00, 
  0xff, 0xff, 0xff, 0xff, 0x40, 0x00, 0x00, 0x00, 0xf4, 0xf9, 0xff, 0xff, 0x61, 0x00, 0x00, 0x00, 
  0x73, 0x65, 0x71, 0x75, 0x65, 0x6e, 0x74, 0x69, 0x61, 0x6c, 0x5f, 0x33, 0x5f, 0x31, 0x2f, 0x64, 
  0x65, 0x6e, 0x73, 0x65, 0x5f, 0x31, 0x31, 0x5f, 0x31, 0x2f, 0x4d, 0x61, 0x74, 0x4d, 0x75, 0x6c, 
  0x3b, 0x73, 0x65, 0x71, 0x75, 0x65, 0x6e, 0x74, 0x69, 0x61, 0x6c, 0x5f, 0x33, 0x5f, 0x31, 0x2f, 
  0x64, 0x65, 0x6e, 0x73, 0x65, 0x5f, 0x31, 0x31, 0x5f, 0x31, 0x2f, 0x52, 0x65, 0x6c, 0x75, 0x3b, 
  0x73, 0x65, 0x71, 0x75, 0x65, 0x6e, 0x74, 0x69, 0x61, 0x6c, 0x5f, 0x33, 0x5f, 0x31, 0x2f, 0x64, 
  0x65, 0x6e, 0x73, 0x65, 0x5f, 0x31, 0x31, 0x5f, 0x31, 0x2f, 0x42, 0x69, 0x61, 0x73, 0x41, 0x64, 
  0x64, 0x00, 0x00, 0x00, 0x02, 0x00, 0x00, 0x00, 0x01, 0x00, 0x00, 0x00, 0x40, 0x00, 0x00, 0x00, 
  0xaa, 0xfa, 0xff, 0xff, 0x00, 0x00, 0x00, 0x01, 0x14, 0x00, 0x00, 0x00, 0x1c, 0x00, 0x00, 0x00, 
  0x1c, 0x00, 0x00, 0x00, 0x08, 0x00, 0x00, 0x00, 0x7c, 0x00, 0x00, 0x00, 0x02, 0x00, 0x00, 0x00, 
  0xff, 0xff, 0xff, 0xff, 0x80, 0x00, 0x00, 0x00, 0x94, 0xfa, 0xff, 0xff, 0x61, 0x00, 0x00, 0x00, 
  0x73, 0x65, 0x71, 0x75, 0x65, 0x6e, 0x74, 0x69, 0x61, 0x6c, 0x5f, 0x33, 0x5f, 0x31, 0x2f, 0x64, 
  0x65, 0x6e, 0x73, 0x65, 0x5f, 0x31, 0x30, 0x5f, 0x31, 0x2f, 0x4d, 0x61, 0x74, 0x4d, 0x75, 0x6c, 
  0x3b, 0x73, 0x65, 0x71, 0x75, 0x65, 0x6e, 0x74, 0x69, 0x61, 0x6c, 0x5f, 0x33, 0x5f, 0x31, 0x2f, 
  0x64, 0x65, 0x6e, 0x73, 0x65, 0x5f, 0x31, 0x30, 0x5f, 0x31, 0x2f, 0x52, 0x65, 0x6c, 0x75, 0x3b, 
  0x73, 0x65, 0x71, 0x75, 0x65, 0x6e, 0x74, 0x69, 0x61, 0x6c, 0x5f, 0x33, 0x5f, 0x31, 0x2f, 0x64, 
  0x65, 0x6e, 0x73, 0x65, 0x5f, 0x31, 0x30, 0x5f, 0x31, 0x2f, 0x42, 0x69, 0x61, 0x73, 0x41, 0x64, 
  0x64, 0x00, 0x00, 0x00, 0x02, 0x00, 0x00, 0x00, 0x01, 0x00, 0x00, 0x00, 0x80, 0x00, 0x00, 0x00, 
  0x00, 0x00, 0x16, 0x00, 0x1c, 0x00, 0x18, 0x00, 0x17, 0x00, 0x10, 0x00, 0x0c, 0x00, 0x08, 0x00, 
  0x00, 0x00, 0x00, 0x00, 0x00, 0x00, 0x07, 0x00, 0x16, 0x00, 0x00, 0x00, 0x00, 0x00, 0x00, 0x01, 
  0x20, 0x00, 0x00, 0x00, 0x34, 0x03, 0x00, 0x00, 0x07, 0x00, 0x00, 0x00, 0x00, 0x00, 0x00, 0x09, 
  0x40, 0x03, 0x00, 0x00, 0x0c, 0x00, 0x0c, 0x00, 0x00, 0x00, 0x00, 0x00, 0x08, 0x00, 0x04, 0x00, 
  0x0c, 0x00, 0x00, 0x00, 0x08, 0x00, 0x00, 0x00, 0x0c, 0x02, 0x00, 0x00, 0x40, 0x00, 0x00, 0x00, 
  0x00, 0x00, 0x00, 0x00, 0x00, 0x00, 0x00, 0x00, 0x00, 0x00, 0x00, 0x00, 0x00, 0x00, 0x00, 0x00, 
  0x00, 0x00, 0x00, 0x00, 0x00, 0x00, 0x00, 0x00, 0x00, 0x00, 0x00, 0x00, 0x00, 0x00, 0x00, 0x00, 
  0x00, 0x00, 0x00, 0x00, 0x00, 0x00, 0x00, 0x00, 0x00, 0x00, 0x00, 0x00, 0x00, 0x00, 0x00, 0x00, 
  0x00, 0x00, 0x00, 0x00, 0x00, 0x00, 0x00, 0x00, 0x00, 0x00, 0x00, 0x00, 0x00, 0x00, 0x00, 0x00, 
  0x00, 0x00, 0x00, 0x00, 0x00, 0x00, 0x00, 0x00, 0x00, 0x00, 0x00, 0x00, 0x00, 0x00, 0x00, 0x00, 
  0x00, 0x00, 0x00, 0x00, 0x00, 0x00, 0x00, 0x00, 0x00, 0x00, 0x00, 0x00, 0x00, 0x00, 0x00, 0x00, 
  0x00, 0x00, 0x00, 0x00, 0x00, 0x00, 0x00, 0x00, 0x00, 0x00, 0x00, 0x00, 0x00, 0x00, 0x00, 0x00, 
  0x00, 0x00, 0x00, 0x00, 0x00, 0x00, 0x00, 0x00, 0x00, 0x00, 0x00, 0x00, 0x00, 0x00, 0x00, 0x00, 
  0x00, 0x00, 0x00, 0x00, 0x00, 0x00, 0x00, 0x00, 0x00, 0x00, 0x00, 0x00, 0x00, 0x00, 0x00, 0x00, 
  0x00, 0x00, 0x00, 0x00, 0x00, 0x00, 0x00, 0x00, 0x00, 0x00, 0x00, 0x00, 0x00, 0x00, 0x00, 0x00, 
  0x00, 0x00, 0x00, 0x00, 0x00, 0x00, 0x00, 0x00, 0x00, 0x00, 0x00, 0x00, 0x00, 0x00, 0x00, 0x00, 
  0x00, 0x00, 0x00, 0x00, 0x00, 0x00, 0x00, 0x00, 0x00, 0x00, 0x00, 0x00, 0x00, 0x00, 0x00, 0x00, 
  0x00, 0x00, 0x00, 0x00, 0x00, 0x00, 0x00, 0x00, 0x00, 0x00, 0x00, 0x00, 0x00, 0x00, 0x00, 0x00, 
  0x00, 0x00, 0x00, 0x00, 0x00, 0x00, 0x00, 0x00, 0x00, 0x00, 0x00, 0x00, 0x00, 0x00, 0x00, 0x00, 
  0x00, 0x00, 0x00, 0x00, 0x00, 0x00, 0x00, 0x00, 0x00, 0x00, 0x00, 0x00, 0x00, 0x00, 0x00, 0x00, 
  0x00, 0x00, 0x00, 0x00, 0x00, 0x00, 0x00, 0x00, 0x00, 0x00, 0x00, 0x00, 0x00, 0x00, 0x00, 0x00, 
  0x00, 0x00, 0x00, 0x00, 0x00, 0x00, 0x00, 0x00, 0x00, 0x00, 0x00, 0x00, 0x00, 0x00, 0x00, 0x00, 
  0x00, 0x00, 0x00, 0x00, 0x00, 0x00, 0x00, 0x00, 0x00, 0x00, 0x00, 0x00, 0x00, 0x00, 0x00, 0x00, 
  0x00, 0x00, 0x00, 0x00, 0x00, 0x00, 0x00, 0x00, 0x00, 0x00, 0x00, 0x00, 0x00, 0x00, 0x00, 0x00, 
  0x00, 0x00, 0x00, 0x00, 0x00, 0x00, 0x00, 0x00, 0x00, 0x00, 0x00, 0x00, 0x00, 0x00, 0x00, 0x00, 
  0x00, 0x00, 0x00, 0x00, 0x00, 0x00, 0x00, 0x00, 0x00, 0x00, 0x00, 0x00, 0x00, 0x00, 0x00, 0x00, 
  0x00, 0x00, 0x00, 0x00, 0x00, 0x00, 0x00, 0x00, 0x00, 0x00, 0x00, 0x00, 0x00, 0x00, 0x00, 0x00, 
  0x00, 0x00, 0x00, 0x00, 0x00, 0x00, 0x00, 0x00, 0x00, 0x00, 0x00, 0x00, 0x00, 0x00, 0x00, 0x00, 
  0x00, 0x00, 0x00, 0x00, 0x00, 0x00, 0x00, 0x00, 0x00, 0x00, 0x00, 0x00, 0x00, 0x00, 0x00, 0x00, 
  0x00, 0x00, 0x00, 0x00, 0x00, 0x00, 0x00, 0x00, 0x00, 0x00, 0x00, 0x00, 0x00, 0x00, 0x00, 0x00, 
  0x00, 0x00, 0x00, 0x00, 0x00, 0x00, 0x00, 0x00, 0x00, 0x00, 0x00, 0x00, 0x00, 0x00, 0x00, 0x00, 
  0x00, 0x00, 0x00, 0x00, 0x00, 0x00, 0x00, 0x00, 0x00, 0x00, 0x00, 0x00, 0x00, 0x00, 0x00, 0x00, 
  0x00, 0x00, 0x00, 0x00, 0x00, 0x00, 0x00, 0x00, 0x00, 0x00, 0x00, 0x00, 0x00, 0x00, 0x00, 0x00, 
  0x00, 0x00, 0x00, 0x00, 0x00, 0x00, 0x00, 0x00, 0x00, 0x00, 0x00, 0x00, 0x00, 0x00, 0x00, 0x00, 
  0x00, 0x00, 0x00, 0x00, 0x00, 0x00, 0x00, 0x00, 0x00, 0x00, 0x00, 0x00, 0x00, 0x00, 0x00, 0x00, 
  0x00, 0x00, 0x00, 0x00, 0x00, 0x00, 0x00, 0x00, 0x00, 0x00, 0x00, 0x00, 0x00, 0x00, 0x00, 0x00, 
  0x00, 0x00, 0x00, 0x00, 0x00, 0x00, 0x00, 0x00, 0x00, 0x00, 0x00, 0x00, 0x00, 0x00, 0x00, 0x00, 
  0x00, 0x00, 0x00, 0x00, 0x40, 0x00, 0x00, 0x00, 0xbb, 0x3c, 0x17, 0x3b, 0xf7, 0x6b, 0x45, 0x3b, 
  0x09, 0xe4, 0x72, 0x3b, 0xc5, 0x48, 0xf2, 0x3a, 0x23, 0xb7, 0xe3, 0x3a, 0xfe, 0x52, 0xd7, 0x3a, 
  0x03, 0x3b, 0x09, 0x3b, 0x34, 0xdc, 0x6e, 0x3b, 0x00, 0xe6, 0x8c, 0x3b, 0x4a, 0x77, 0x40, 0x3b, 
  0x80, 0xa6, 0x13, 0x3b, 0x36, 0xc6, 0x37, 0x3b, 0x3d, 0x34, 0xc5, 0x3a, 0xfc, 0x09, 0x22, 0x3b, 
  0x4b, 0x1f, 0xd5, 0x3a, 0xc3, 0xcf, 0x40, 0x3b, 0x38, 0xd2, 0x50, 0x3b, 0xca, 0x7b, 0xc5, 0x3a, 
  0x05, 0xc9, 0x08, 0x3b, 0x22, 0x48, 0x34, 0x3b, 0x2b, 0x3a, 0x0f, 0x3b, 0x95, 0x78, 0x06, 0x3b, 
  0xda, 0x7a, 0x33, 0x3b, 0x3d, 0x69, 0xe4, 0x3a, 0xbe, 0x17, 0x90, 0x3b, 0xa1, 0x9f, 0xeb, 0x3a, 
  0xb6, 0x59, 0x1f, 0x3b, 0xb9, 0x4d, 0x67, 0x3b, 0xec, 0x46, 0xe9, 0x3a, 0x8a, 0xee, 0xde, 0x3a, 
  0x79, 0x24, 0xef, 0x3a, 0xb8, 0x27, 0xec, 0x3a, 0x4d, 0x3c, 0xf6, 0x3a, 0x78, 0xaf, 0x07, 0x3b, 
  0x83, 0xa0, 0x1b, 0x3b, 0x03, 0xa9, 0x02, 0x3b, 0x80, 0x44, 0x5f, 0x3b, 0x71, 0x76, 0x66, 0x3b, 
  0x98, 0x89, 0x1c, 0x3b, 0x6a, 0xbd, 0x0a, 0x3b, 0xa4, 0x1b, 0x03, 0x3b, 0xe7, 0xea, 0xd6, 0x3a, 
  0x71, 0xe4, 0x18, 0x3b, 0xfa, 0x36, 0xc6, 0x3a, 0x5c, 0x60, 0x07, 0x3b, 0xdd, 0x13, 0xea, 0x3a, 
  0x2a, 0xd4, 0xfb, 0x3a, 0x0e, 0x3e, 0x17, 0x3b, 0xf4, 0x04, 0x23, 0x3b, 0x8d, 0xcf, 0x10, 0x3b, 
  0x5a, 0x3b, 0xdc, 0x3b, 0x69, 0xba, 0x38, 0x3b, 0x2f, 0x2f, 0x8b, 0x3b, 0xbb, 0x36, 0xe6, 0x3a, 
  0xa2, 0x2a, 0xf6, 0x3a, 0x59, 0x05, 0xd4, 0x3a, 0x6f, 0x74, 0x0f, 0x3b, 0xce, 0x95, 0x0c, 0x3b, 
  0xa7, 0xb1, 0xd2, 0x3a, 0xea, 0xcb, 0xd9, 0x3a, 0x23, 0xeb, 0x2c, 0x3b, 0xe5, 0xfd, 0x28, 0x3b, 
  0x3f, 0x9e, 0x1e, 0x3b, 0x08, 0x18, 0x13, 0x3b, 0x11, 0x00, 0x00, 0x00, 0x74, 0x66, 0x6c, 0x2e, 
  0x70, 0x73, 0x65, 0x75, 0x64, 0x6f, 0x5f, 0x71, 0x63, 0x6f, 0x6e, 0x73, 0x74, 0x00, 0x00, 0x00, 
  0x02, 0x00, 0x00, 0x00, 0x40, 0x00, 0x00, 0x00, 0x80, 0x00, 0x00, 0x00, 0x1a, 0xff, 0xff, 0xff, 
  0x00, 0x00, 0x00, 0x01, 0x10, 0x00, 0x00, 0x00, 0x10, 0x00, 0x00, 0x00, 0x06, 0x00, 0x00, 0x00, 
  0x1c, 0x00, 0x00, 0x00, 0xa0, 0xfe, 0xff, 0xff, 0x0f, 0x00, 0x00, 0x00, 0x61, 0x72, 0x69, 0x74, 
  0x68, 0x2e, 0x63, 0x6f, 0x6e, 0x73, 0x74, 0x61, 0x6e, 0x74, 0x34, 0x00, 0x02, 0x00, 0x00, 0x00, 
  0x01, 0x00, 0x00, 0x00, 0x40, 0x00, 0x00, 0x00, 0x56, 0xff, 0xff, 0xff, 0x00, 0x00, 0x00, 0x01, 
  0x10, 0x00, 0x00, 0x00, 0x10, 0x00, 0x00, 0x00, 0x05, 0x00, 0x00, 0x00, 0x1c, 0x00, 0x00, 0x00, 
  0xdc, 0xfe, 0xff, 0xff, 0x0f, 0x00, 0x00, 0x00, 0x61, 0x72, 0x69, 0x74, 0x68, 0x2e, 0x63, 0x6f, 
  0x6e, 0x73, 0x74, 0x61, 0x6e, 0x74, 0x33, 0x00, 0x01, 0x00, 0x00, 0x00, 0x01, 0x00, 0x00, 0x00, 
  0x8e, 0xff, 0xff, 0xff, 0x00, 0x00, 0x00, 0x01, 0x10, 0x00, 0x00, 0x00, 0x10, 0x00, 0x00, 0x00, 
  0x04, 0x00, 0x00, 0x00, 0x1c, 0x00, 0x00, 0x00, 0x14, 0xff, 0xff, 0xff, 0x0f, 0x00, 0x00, 0x00, 
  0x61, 0x72, 0x69, 0x74, 0x68, 0x2e, 0x63, 0x6f, 0x6e, 0x73, 0x74, 0x61, 0x6e, 0x74, 0x32, 0x00, 
  0x01, 0x00, 0x00, 0x00, 0x40, 0x00, 0x00, 0x00, 0xc6, 0xff, 0xff, 0xff, 0x00, 0x00, 0x00, 0x01, 
  0x10, 0x00, 0x00, 0x00, 0x10, 0x00, 0x00, 0x00, 0x03, 0x00, 0x00, 0x00, 0x1c, 0x00, 0x00, 0x00, 
  0x4c, 0xff, 0xff, 0xff, 0x0f, 0x00, 0x00, 0x00, 0x61, 0x72, 0x69, 0x74, 0x68, 0x2e, 0x63, 0x6f, 
  0x6e, 0x73, 0x74, 0x61, 0x6e, 0x74, 0x31, 0x00, 0x01, 0x00, 0x00, 0x00, 0x80, 0x00, 0x00, 0x00, 
  0x00, 0x00, 0x16, 0x00, 0x18, 0x00, 0x14, 0x00, 0x00, 0x00, 0x10, 0x00, 0x0c, 0x00, 0x08, 0x00, 
  0x00, 0x00, 0x00, 0x00, 0x00, 0x00, 0x07, 0x00, 0x16, 0x00, 0x00, 0x00, 0x00, 0x00, 0x00, 0x01, 
  0x10, 0x00, 0x00, 0x00, 0x10, 0x00, 0x00, 0x00, 0x02, 0x00, 0x00, 0x00, 0x1c, 0x00, 0x00, 0x00, 
  0x9c, 0xff, 0xff, 0xff, 0x0e, 0x00, 0x00, 0x00, 0x61, 0x72, 0x69, 0x74, 0x68, 0x2e, 0x63, 0x6f, 
  0x6e, 0x73, 0x74, 0x61, 0x6e, 0x74, 0x00, 0x00, 0x02, 0x00, 0x00, 0x00, 0x80, 0x00, 0x00, 0x00, 
  0x05, 0x00, 0x00, 0x00, 0x00, 0x00, 0x16, 0x00, 0x1c, 0x00, 0x18, 0x00, 0x00, 0x00, 0x14, 0x00, 
  0x10, 0x00, 0x0c, 0x00, 0x00, 0x00, 0x00, 0x00, 0x08, 0x00, 0x07, 0x00, 0x16, 0x00, 0x00, 0x00, 
  0x00, 0x00, 0x00, 0x01, 0x14, 0x00, 0x00, 0x00, 0x20, 0x00, 0x00, 0x00, 0x20, 0x00, 0x00, 0x00, 
  0x01, 0x00, 0x00, 0x00, 0x3c, 0x00, 0x00, 0x00, 0x02, 0x00, 0x00, 0x00, 0xff, 0xff, 0xff, 0xff, 
  0x05, 0x00, 0x00, 0x00, 0x04, 0x00, 0x04, 0x00, 0x04, 0x00, 0x00, 0x00, 0x1f, 0x00, 0x00, 0x00, 
  0x73, 0x65, 0x72, 0x76, 0x69, 0x6e, 0x67, 0x5f, 0x64, 0x65, 0x66, 0x61, 0x75, 0x6c, 0x74, 0x5f, 
  0x69, 0x6e, 0x70, 0x75, 0x74, 0x5f, 0x6c, 0x61, 0x79, 0x65, 0x72, 0x5f, 0x33, 0x3a, 0x30, 0x00, 
  0x02, 0x00, 0x00, 0x00, 0x01, 0x00, 0x00, 0x00, 0x05, 0x00, 0x00, 0x00, 0x01, 0x00, 0x00, 0x00, 
  0x10, 0x00, 0x00, 0x00, 0x0c, 0x00, 0x10, 0x00, 0x0f, 0x00, 0x00, 0x00, 0x08, 0x00, 0x04, 0x00, 
  0x0c, 0x00, 0x00, 0x00, 0x09, 0x00, 0x00, 0x00, 0x0c, 0x00, 0x00, 0x00, 0x00, 0x00, 0x00, 0x09
};